node {
  name: "global_step/Initializer/Const"
  op: "Const"
  attr {
    key: "_class"
    value {
      list {
        s: "loc:@global_step"
      }
    }
  }
  attr {
    key: "_output_shapes"
    value {
      list {
        shape {
        }
      }
    }
  }
  attr {
    key: "dtype"
    value {
      type: DT_INT64
    }
  }
  attr {
    key: "value"
    value {
      tensor {
        dtype: DT_INT64
        tensor_shape {
        }
        int64_val: 0
      }
    }
  }
}
node {
  name: "global_step"
  op: "VariableV2"
  attr {
    key: "_class"
    value {
      list {
        s: "loc:@global_step"
      }
    }
  }
  attr {
    key: "_output_shapes"
    value {
      list {
        shape {
        }
      }
    }
  }
  attr {
    key: "container"
    value {
      s: ""
    }
  }
  attr {
    key: "dtype"
    value {
      type: DT_INT64
    }
  }
  attr {
    key: "shape"
    value {
      shape {
      }
    }
  }
  attr {
    key: "shared_name"
    value {
      s: ""
    }
  }
}
node {
  name: "global_step/Assign"
  op: "Assign"
  input: "global_step"
  input: "global_step/Initializer/Const"
  attr {
    key: "T"
    value {
      type: DT_INT64
    }
  }
  attr {
    key: "_class"
    value {
      list {
        s: "loc:@global_step"
      }
    }
  }
  attr {
    key: "_output_shapes"
    value {
      list {
        shape {
        }
      }
    }
  }
  attr {
    key: "use_locking"
    value {
      b: true
    }
  }
  attr {
    key: "validate_shape"
    value {
      b: true
    }
  }
}
node {
  name: "global_step/read"
  op: "Identity"
  input: "global_step"
  attr {
    key: "T"
    value {
      type: DT_INT64
    }
  }
  attr {
    key: "_class"
    value {
      list {
        s: "loc:@global_step"
      }
    }
  }
  attr {
    key: "_output_shapes"
    value {
      list {
        shape {
        }
      }
    }
  }
}
node {
  name: "Const"
  op: "Const"
  attr {
    key: "_output_shapes"
    value {
      list {
        shape {
          dim {
            size: 250
          }
          dim {
            size: 13
          }
        }
      }
    }
  }
  attr {
    key: "dtype"
    value {
      type: DT_FLOAT
    }
  }
  attr {
    key: "value"
    value {
      tensor {
        dtype: DT_FLOAT
        tensor_shape {
          dim {
            size: 250
          }
          dim {
            size: 13
          }
        }
        tensor_content: "\000\000\214B\000\000\200?\000\000\200@\000\000\002C\000\000\241C\000\000\000\000\000\000\000@\000\000\332B\000\000\000\000\232\231\031@\000\000\000@\000\000@@\000\000@@\000\000\206B\000\000\000\000\000\000@@\000\000\346B\000\000\rD\000\000\000\000\000\000\000@\000\000 C\000\000\000\000\315\314\314?\000\000\000@\000\000\000\000\000\000\340@\000\000dB\000\000\200?\000\000\000@\000\000\370B\000\200\202C\000\000\000\000\000\000\000\000\000\000\rC\000\000\000\000\232\231\231>\000\000\200?\000\000\000\000\000\000\340@\000\000\200B\000\000\200?\000\000\200@\000\000\000C\000\200\203C\000\000\000\000\000\000\000\000\000\000\322B\000\000\200?\315\314L>\000\000\000@\000\000\200?\000\000\340@\000\000\224B\000\000\000\000\000\000\000@\000\000\360B\000\200\206C\000\000\000\000\000\000\000@\000\000\362B\000\000\200?\315\314L>\000\000\200?\000\000\200?\000\000@@\000\000\202B\000\000\200?\000\000\200@\000\000\360B\000\0001C\000\000\000\000\000\000\000\000\000\000\014C\000\000\000\000\315\314\314>\000\000\200?\000\000\000\000\000\000\340@\000\000`B\000\000\200?\000\000@@\000\000\002C\000\000\200C\000\000\200?\000\000\000@\000\000\016C\000\000\200?\232\231\031?\000\000\000@\000\000\200?\000\000\300@\000\000lB\000\000\200?\000\000\200@\000\000\334B\000\000oC\000\000\000\000\000\000\000@\000\000\016C\000\000\200?\232\231\231?\000\000\000@\000\000\200?\000\000\340@\000\000pB\000\000\200?\000\000\200@\000\000\014C\000\200\222C\000\000\000\000\000\000\000@\000\000*C\000\000\000\000\232\231\231?\000\000\000@\000\000\000@\000\000\340@\000\000|B\000\000\000\000\000\000\200@\000\000\026C\000\200\313C\000\000\000\000\000\000\000@\000\000\032C\000\000\000\000\000\000\200@\000\000\000@\000\000@@\000\000\340@\000\000lB\000\000\200?\000\000\200@\000\000\007C\000\000jC\000\000\000\000\000\000\000\000\000\000!C\000\000\000\000\000\000\000?\000\000\000@\000\000\000\000\000\000\340@\000\000TB\000\000\200?\000\000\200@\000\000\016C\000\000bC\000\000\000\000\000\000\000@\000\000\336B\000\000\200?\000\000\000\000\000\000\200?\000\000\000\000\000\000\340@\000\0000B\000\000\200?\000\000@@\000\000\014C\000\000kC\000\000\000\000\000\000\000@\000\0004C\000\000\000\000\000\000\000\000\000\000\200?\000\000\000\000\000\000@@\000\000tB\000\000\200?\000\000\200?\000\000\006C\000\000jC\000\000\000\000\000\000\000\000\000\000\021C\000\000\000\000ff&@\000\000\000@\000\000\000@\000\000@@\000\000dB\000\000\000\000\000\000\200@\000\000\000C\000\200\227C\000\000\000\000\000\000\000@\000\000\037C\000\000\000\000\000\000\000\000\000\000\200?\000\000\200?\000\000@@\000\000\216B\000\000\000\000\000\000\200@\000\000\340B\000\000\025C\000\000\000\000\000\000\000\000\000\000\372B\000\000\000\000\315\314\314?\000\000\000@\000\000\000\000\000\000@@\000\0008B\000\000\200?\000\000\200@\000\000\014C\000\200\233C\000\000\000\000\000\000\000\000\000\000\360B\000\000\200?ff\346?\000\000\000@\000\000\000@\000\000\340@\000\000TB\000\000\200?\000\000\200@\000\000\014C\000\000KC\000\000\200?\000\000\000@\000\000\033C\000\000\200?ffF@\000\000@@\000\000\000\000\000\000\340@\000\000\200B\000\000\200?\000\000\200?\000\000\334B\000\000SC\000\000\000\000\000\000\000@\000\000\020C\000\000\200?ff\346?\000\000\000@\000\000\000\000\000\000@@\000\000 B\000\000\200?\000\000\200?\000\000\014C\000\000GC\000\000\000\000\000\000\000\000\000\0002C\000\000\200?33\263?\000\000\200?\000\000\000\000\000\000\340@\000\000\206B\000\000\200?\000\000\200@\000\000\360B\000\000eC\000\000\000\000\000\000\000@\000\000\001C\000\000\200?ff&@\000\000\000@\000\000\000@\000\000\340@\000\000@B\000\000\200?\000\000\000@\000\000\002C\000\000uC\000\000\000\000\000\000\000@\000\0004C\000\000\000\000\315\314L>\000\000\000@\000\000\000\000\000\000@@\000\000,B\000\000\200?\000\000\200@\000\000\346B\000\200\227C\000\000\000\000\000\000\000\000\000\0005C\000\000\000\000\232\231\231?\000\000\000@\000\000\000\000\000\000@@\000\000<B\000\000\200?\000\000\200@\000\000\340B\000\000LC\000\000\000\000\000\000\000\000\000\000\017C\000\000\000\000\315\314\314=\000\000\200?\000\000\000\000\000\000@@\000\000XB\000\000\000\000\000\000\000@\000\000\004C\000\000\220C\000\000\200?\000\000\000@\000\000\037C\000\000\200?\000\000\000\000\000\000\200?\000\000\200?\000\000@@\000\000@B\000\000\000\000\000\000@@\000\000\002C\000\200\211C\000\000\000\000\000\000\000\000\000\000\013C\000\000\000\000\315\314L>\000\000\200?\000\000\000\000\000\000@@\000\0008B\000\000\000\000\000\000\200@\000\000\nC\000\000sC\000\000\000\000\000\000\000@\000\000\030C\000\000\200?\000\000\000\000\000\000\000@\000\000\000\000\000\000@@\000\000LB\000\000\000\000\000\000@@\000\000\360B\000\200\223C\000\000\000\000\000\000\000@\000\000\035C\000\000\000\000\232\231\031?\000\000\200?\000\000\000\000\000\000@@\000\000hB\000\000\200?\000\000@@\000\000\340B\000\000fC\000\000\000\000\000\000\000@\000\000%C\000\000\000\000\000\000 @\000\000\000@\000\000\200?\000\000\340@\000\000\216B\000\000\000\000\000\000@@\000\000\334B\000\200\204C\000\000\200?\000\000\000@\000\000\002C\000\000\000\000\000\000\000\000\000\000\200?\000\000\200?\000\000@@\000\000dB\000\000\200?\000\000@@\000\000\000C\000\000eC\000\000\000\000\000\000\000@\000\000\026C\000\000\000\000\315\314\314>\000\000\000@\000\000\200?\000\000\340@\000\000\204B\000\000\200?\000\000\200@\000\000 C\000\000dC\000\000\000\000\000\000\000@\000\000\nC\000\000\000\00033\023@\000\000\200?\000\000\000\000\000\000\300@\000\000\024B\000\000\000\000\000\000@@\000\000\360B\000\000WC\000\000\000\000\000\000\000\000\000\000*C\000\000\000\000\000\000\000\000\000\000\200?\000\000\000\000\000\000@@\000\000lB\000\000\200?\000\000\200@\000\000*C\000\000\243C\000\000\000\000\000\000\000@\000\000\014C\000\000\200?\232\231Y@\000\000@@\000\000\000\000\000\000\340@\000\000HB\000\000\200?\000\000\200@\000\000\020C\000\000HC\000\000\000\000\000\000\000@\000\000\374B\000\000\200?fff?\000\000\000@\000\000\000\000\000\000\340@\000\000@B\000\000\200?\000\000\200@\000\000\002C\000\000\200C\000\000\200?\000\000\000@\000\000\026C\000\000\200?\000\000\000\000\000\000\200?\000\000\000@\000\000\340@\000\000tB\000\000\200?\000\000\200@\000\000\014C\000\000OC\000\000\000\000\000\000\000@\000\000\nC\000\000\200?33\363?\000\000\200?\000\000\200?\000\000\340@\000\000lB\000\000\200?\000\000\200?\000\000 C\000\200\210C\000\000\000\000\000\000\000@\000\000\372B\000\000\000\000\000\000\000\000\000\000\200?\000\000\000\000\000\000@@\000\000(B\000\000\200?\000\000@@\000\000\002C\000\0004C\000\000\000\000\000\000\000\000\000\000\026C\000\000\000\000\000\000\000\000\000\000\200?\000\000\000\000\000\000@@\000\000@B\000\000\200?\000\000\200@\000\000\364B\000\000^C\000\000\000\000\000\000\000@\000\000:C\000\000\000\000\000\000\000\000\000\000\200?\000\000\000\000\000\000@@\000\000 B\000\000\200?\000\000\200@\000\000\030C\000\000_C\000\000\000\000\000\000\000\000\000\0005C\000\000\000\000\000\000\000\000\000\000\200?\000\000\000\000\000\000\340@\000\000xB\000\000\000\000\000\000\200@\000\000\370B\000\000QC\000\000\000\000\000\000\000\000\000\000#C\000\000\000\000\000\000\000\000\000\000\200?\000\000\000\000\000\000@@\000\0000B\000\000\200?\000\000@@\000\000\002C\000\000iC\000\000\000\000\000\000\000\000\000\0003C\000\000\200?\315\314\314>\000\000\200?\000\000\000\000\000\000@@\000\0008B\000\000\200?\000\000\000@\000\000\312B\000\000EC\000\000\200?\000\000\000\000\000\000\034C\000\000\000\000\000\000\000\000\000\000\200?\000\000\000\000\000\000\340@\000\000lB\000\000\200?\000\000@@\000\000\374B\000\000ZC\000\000\200?\000\000\000\000\000\000\006C\000\000\000\000\315\314\014@\000\000\000@\000\000\200?\000\000\300@\000\000hB\000\000\200?\000\000@@\000\000\014C\000\000SC\000\000\200?\000\000\000@\000\000%C\000\000\000\000\000\000\000\000\000\000\200?\000\000\000\000\000\000@@\000\000DB\000\000\200?\000\000@@\000\000\354B\000\000\025C\000\000\000\000\000\000\000@\000\000\374B\000\000\000\000\315\314L?\000\000\200?\000\000@@\000\000@@\000\0000B\000\000\200?\000\000\200@\000\000\334B\000\000EC\000\000\000\000\000\000\000@\000\0001C\000\000\000\000\000\000\000\000\000\000\200?\000\000\200?\000\000@@\000\000\204B\000\000\200?\000\000\000@\000\000 C\000\000vC\000\000\000\000\000\000\000\000\000\000\360B\000\000\200?\000\000\000\000\000\000\000@\000\000@@\000\000\300@\000\000\202B\000\000\000\000\000\000\200@\000\000\026C\000\000aC\000\000\000\000\000\000\000@\000\000\344B\000\000\000\000\000\000\200?\000\000\000@\000\000@@\000\000\340@\000\000(B\000\000\200?\000\000\200@\000\000\010C\000\200\235C\000\000\000\000\000\000\000\000\000\000\372B\000\000\200?ff\346?\000\000\000@\000\000\000\000\000\000\300@\000\000PB\000\000\200?\000\000\000@\000\000\000C\000\000MC\000\000\200?\000\000\000\000\000\0008C\000\000\000\000\000\000\000\000\000\000\200?\000\000\000\000\000\000@@\000\000\202B\000\000\000\000\000\000@@\000\000\014C\000\200\320C\000\000\200?\000\000\000@\000\000\035C\000\000\000\000\315\314L?\000\000\200?\000\000\200?\000\000@@\000\000|B\000\000\000\000\000\000\000@\000\000\014C\000\000CC\000\000\000\000\000\000\000\000\000\0003C\000\000\000\000\000\000\000\000\000\000\200?\000\000\000@\000\000@@\000\0004B\000\000\000\000\000\000\000@\000\000\002C\000\000jC\000\000\000\000\000\000\000@\000\000/C\000\000\000\000\232\231\031?\000\000\000@\000\000\000\000\000\000@@\000\000$B\000\000\000\000\000\000\000@\000\000\322B\000\000FC\000\000\000\000\000\000\000\000\000\000(C\000\000\000\000\000\000\000\000\000\000\200?\000\000\200?\000\000@@\000\000tB\000\000\200?\000\000\200@\000\000\nC\000\000&C\000\000\000\000\000\000\000@\000\000\372B\000\000\200?fff@\000\000\000@\000\000\200?\000\000@@\000\000pB\000\000\000\000\000\000@@\000\000\360B\000\0002C\000\000\200?\000\000\000\000\000\000\300B\000\000\000\000\000\000\000\000\000\000\200?\000\000\000\000\000\000@@\000\000lB\000\000\000\000\000\000\200@\000\000.C\000\000yC\000\000\000\000\000\000\000\000\000\000\017C\000\000\200?\000\000\000\000\000\000\000@\000\000\000\000\000\000@@\000\000xB\000\000\200?\000\000\000@\000\000\360B\000\200\214C\000\000\000\000\000\000\000@\000\000\316B\000\000\000\00033\263?\000\000\000@\000\000\200?\000\000\340@\000\000dB\000\000\200?\000\000@@\000\000\026C\000\000\374B\000\000\200?\000\000\000\000\000\000-C\000\000\000\000\315\314L>\000\000\200?\000\000\200?\000\000\340@\000\000LB\000\000\000\000\000\000\200@\000\000\002C\000\200\230C\000\000\000\000\000\000\000\000\000\000\016C\000\000\200?\232\231\231?\000\000\000@\000\000\000\000\000\000\340@\000\0000B\000\000\200?\000\000@@\000\000\360B\000\000bC\000\000\000\000\000\000\000\000\000\000)C\000\000\000\000\000\000\000\000\000\000\200?\000\000\000\000\000\000@@\000\000pB\000\000\000\000\000\000\200?\000\000\026C\000\000pC\000\000\000\000\000\000\000\000\000\000+C\000\000\000\000fff?\000\000\200?\000\000\000\000\000\000@@\000\000|B\000\000\200?\000\000\200?\000\000\021C\000\000iC\000\000\200?\000\000\000@\000\000\026C\000\000\000\00033\023@\000\000@@\000\000\000\000\000\000\300@\000\000dB\000\000\200?\000\000\200@\000\000\026C\000\000\212C\000\000\000\000\000\000\000@\000\000\340B\000\000\200?\232\231\031?\000\000\000@\000\000\200?\000\000\300@\000\000LB\000\000\200?\000\000\200@\000\000\014C\000\200\202C\000\000\000\000\000\000\000@\000\000:C\000\000\200?\000\000\000\000\000\000\200?\000\000\000\000\000\000@@\000\000hB\000\000\000\000\000\000\000@\000\000\010C\000\200\237C\000\000\200?\000\000\000@\000\000\030C\000\000\000\000\000\000\000\000\000\000\200?\000\000\000@\000\000@@\000\0000B\000\000\000\000\000\000@@\000\000\354B\000\000rC\000\000\000\000\000\000\000\000\000\000\025C\000\000\000\000\232\231\231>\000\000\000@\000\000\200?\000\000@@\000\000<B\000\000\200?\000\000@@\000\000\330B\000\000sC\000\000\000\000\000\000\000\000\000\000\030C\000\000\000\000\000\000\000\000\000\000\200?\000\000\000\000\000\000@@\000\000tB\000\000\200?\000\000\200@\000\000\360B\000\000\202C\000\000\000\000\000\000\000\000\000\000\014C\000\000\200?fff@\000\000\000@\000\000\200?\000\000\340@\000\000dB\000\000\000\000\000\000\200@\000\000\360B\000\000\261C\000\000\000\000\000\000\000\000\000\000#C\000\000\200?\232\231\031?\000\000\200?\000\000\000\000\000\000@@\000\000\214B\000\000\200?\000\000\000@\000\000\034C\000\000uC\000\000\000\000\000\000\000@\000\000\017C\000\000\000\000\000\000\000\000\000\000\200?\000\000\000\000\000\000@@\000\000\230B\000\000\000\000\000\000@@\000\000\014C\000\000EC\000\000\000\000\000\000\200?\000\000\350B\000\000\000\000\315\314\214?\000\000\000@\000\000\000\000\000\000@@\000\000\206B\000\000\000\000\000\000\200@\000\000\324B\000\000_C\000\000\000\000\000\000\000\000\000\000\016C\000\000\000\000\232\231\231>\000\000\200?\000\000\000@\000\000@@\000\0004B\000\000\200?\000\000\200@\000\000\016C\000\200\232C\000\000\000\000\000\000\000@\000\000\023C\000\000\200?\000\000\000\000\000\000\000@\000\000@@\000\000\340@\000\0004B\000\000\200?\000\000\200@\000\000\320B\000\000PC\000\000\000\000\000\000\000@\000\000\024C\000\000\200?\000\000@@\000\000\000@\000\000\000\000\000\000@@\000\000\034B\000\000\000\000\000\000@@\000\000\274B\000\000GC\000\000\000\000\000\000\000\000\000\0003C\000\000\000\000\000\000\000\000\000\000\200?\000\000\000\000\000\000@@\000\000(B\000\000\000\000\000\000@@\000\000\360B\000\000QC\000\000\000\000\000\000\000\000\000\000-C\000\000\000\000\000\000\000\000\000\000\000@\000\000\000\000\000\000@@\000\000`B\000\000\200?\000\000\000@\000\000\360B\000\000lC\000\000\000\000\000\000\000\000\000\0002C\000\000\000\000\315\314L?\000\000\200?\000\000\000\000\000\000@@\000\000hB\000\000\200?\000\000\200@\000\000\022C\000\000ZC\000\000\000\000\000\000\000\000\000\000\322B\000\000\000\000\000\000\000@\000\000\000@\000\000\200?\000\000\340@\000\000\014B\000\000\200?\000\000\200@\000\000\360B\000\000FC\000\000\000\000\000\000\000\000\000\000\002C\000\000\200?\315\314\314?\000\000\000@\000\000\000\000\000\000\340@\000\000hB\000\000\200?\000\000\200@\000\000\026C\000\000\207C\000\000\000\000\000\000\000@\000\000\336B\000\000\200?\315\314L?\000\000\200?\000\000\000\000\000\000\340@\000\000$B\000\000\200?\000\000@@\000\000\002C\000\000VC\000\000\000\000\000\000\000@\000\000(C\000\000\000\000\000\000\000@\000\000\000@\000\000\000\000\000\000@@\000\000dB\000\000\200?\000\000\200@\000\000\334B\000\000IC\000\000\000\000\000\000\000\000\000\000\374B\000\000\200?\000\000\300?\000\000\000@\000\000\000\000\000\000\300@\000\000(B\000\000\200?\000\000\200?\000\000\024C\000\000tC\000\000\000\000\000\000\000@\000\0002C\000\000\000\000\315\314L?\000\000\200?\000\000\000@\000\000@@\000\000xB\000\000\200?\000\000\000@\000\000\000C\000\000PC\000\000\200?\000\000\000@\000\000\014C\000\000\000\000\000\000\000\000\000\000\200?\000\000\000\000\000\000@@\000\000lB\000\000\200?\000\000\200?\000\0002C\000\000\207C\000\000\000\000\000\000\000@\000\000\021C\000\000\000\000ff\206@\000\000@@\000\000\000\000\000\000\340@\000\000$B\000\000\000\000\000\000\000@\000\000\374B\000\000\231C\000\000\000\000\000\000\000\000\000\000#C\000\000\000\000\000\000\000\000\000\000\200?\000\000\000\000\000\000@@\000\000HB\000\000\200?\000\000\200@\000\000\026C\000\000sC\000\000\000\000\000\000\000@\000\000\000C\000\000\000\000ff&@\000\000\000@\000\000\000\000\000\000\340@\000\000lB\000\000\200?\000\000\000@\000\000\014C\000\000]C\000\000\000\000\000\000\000\000\000\000$C\000\000\200?\000\000\000\000\000\000\200?\000\000\000\000\000\000@@\000\000tB\000\000\000\000\000\000\200@\000\000\002C\000\000\245C\000\000\000\000\000\000\000@\000\000)C\000\000\000\000\000\000\000\000\000\000\200?\000\000\000\000\000\000@@\000\000XB\000\000\200?\000\000\200@\000\000\370B\000\000\205C\000\000\000\000\000\000\000@\000\000\332B\000\000\200?\315\314\014@\000\000\000@\000\000\200?\000\000\340@\000\000XB\000\000\200?\000\000\200@\000\000\334B\000\000NC\000\000\000\000\000\000\000@\000\000\330B\000\000\200?\000\000\000\000\000\000\000@\000\000\200?\000\000@@\000\000PB\000\000\200?\000\000\200@\000\000\372B\000\000TC\000\000\000\000\000\000\000\000\000\000(C\000\000\000\000\000\000\200?\000\000\200?\000\000\000@\000\000\340@\000\000<B\000\000\200?\000\000\200@\000\000\334B\000\200\211C\000\000\000\000\000\000\000@\000\000\354B\000\000\200?\000\000\200?\000\000\000@\000\000\200?\000\000@@\000\000\204B\000\000\200?\000\000\200@\000\000\360B\000\000\227C\000\000\000\000\000\000\000@\000\000\027C\000\000\000\000\315\314\314>\000\000\000@\000\000\000\000\000\000@@\000\000hB\000\000\200?\000\000\200@\000\000\310B\000\000jC\000\000\000\000\000\000\000\000\000\000\034C\000\000\000\000\315\314\314=\000\000\200?\000\000\200?\000\000\340@\000\000\200B\000\000\000\000\000\000@@\000\000\014C\000\200\234C\000\000\000\000\000\000\000\000\000\000\005C\000\000\000\000\315\314L>\000\000\200?\000\000\000\000\000\000\340@\000\000HB\000\000\000\000\000\000\000@\000\000\360B\000\000tC\000\000\000\000\000\000\000\000\000\000\"C\000\000\000\000\315\314\214?\000\000\200?\000\000\000\000\000\000@@\000\0000B\000\000\000\000\000\000@@\000\000\330B\000\000\rC\000\000\000\000\000\000\000\000\000\000/C\000\000\000\000\232\231\031?\000\000\000@\000\000\000\000\000\000@@\000\000\206B\000\000\200?\000\000\200@\000\000\360B\000\000mC\000\000\000\000\000\000\000\000\000\000\216B\000\000\000\000\000\000\200?\000\000\000@\000\000\000\000\000\000@@\000\000DB\000\000\000\000\000\000\200@\000\000\002C\000\200\206C\000\000\000\000\000\000\000\000\000\000#C\000\000\000\000\000\000\000\000\000\000\200?\000\000\000\000\000\000@@\000\000dB\000\000\200?\000\000\200@\000\000%C\000\200\220C\000\000\200?\000\000\000@\000\000\370B\000\000\000\000\000\000\200?\000\000\000@\000\000@@\000\000\340@\000\000|B\000\000\200?\000\000\200@\000\000\002C\000\000~C\000\000\000\000\000\000\000@\000\000\023C\000\000\000\00033\263?\000\000\000@\000\000\200?\000\000\340@\000\000@B\000\000\200?\000\000\200@\000\000\370B\000\000\211C\000\000\000\000\000\000\000@\000\000&C\000\000\000\000\000\000\000?\000\000\000@\000\000\000\000\000\000\340@\000\000LB\000\000\200?\000\000@@\000\000\310B\000\000^C\000\000\000\000\000\000\000\000\000\000\017C\000\000\200?\232\231\231?\000\000\000@\000\000\000\000\000\000@@\000\000pB\000\000\000\000\000\000\200@\000\000\026C\000\000\201C\000\000\000\000\000\000\000@\000\000\035C\000\000\000\000ff&@\000\000\000@\000\000\000@\000\000\340@\000\000lB\000\000\200?\000\000\200@\000\000\014C\000\0001C\000\000\000\000\000\000\000\000\000\000\"C\000\000\200?\000\000\000\000\000\000\200?\000\000\200?\000\000\340@\000\0004B\000\000\000\000\000\000\000@\000\000\340B\000\000 C\000\000\000\000\000\000\000\000\000\000\nC\000\000\000\000\000\000\000\000\000\000\000@\000\000\000\000\000\000@@\000\000\\B\000\000\000\000\000\000\200@\000\0004C\000\200\243C\000\000\000\000\000\000\200?\000\000\352B\000\000\200?\232\231Y@\000\000\000@\000\000\000\000\000\000@@\000\000$B\000\000\200?\000\000\000@\000\000\334B\000\000kC\000\000\000\000\000\000\000\000\000\000\031C\000\000\000\000\000\000\000\000\000\000\200?\000\000\000\000\000\000@@\000\000pB\000\000\000\000\000\000\200@\000\000\036C\000\200\230C\000\000\000\000\000\000\000@\000\000!C\000\000\000\000\000\000\000\000\000\000\200?\000\000\000\000\000\000@@\000\000XB\000\000\000\000\000\000@@\000\000\007C\000\000\230C\000\000\200?\000\000\000\000\000\000*C\000\000\000\000\000\000\000\000\000\000\200?\000\000\000\000\000\000@@\000\000(B\000\000\200?\000\000\000@\000\000\360B\000\200\223C\000\000\000\000\000\000\000\000\000\000\"C\000\000\000\000\000\000\000\000\000\000\200?\000\000\000\000\000\000@@\000\000DB\000\000\000\000\000\000\000@\000\000\006C\000\200\207C\000\000\000\000\000\000\000\000\000\000\"C\000\000\000\000\000\000\000\000\000\000\000@\000\000\000\000\000\000@@\000\0008B\000\000\200?\000\000\200@\000\000\360B\000\000yC\000\000\000\000\000\000\000@\000\000\020C\000\000\000\000\315\314L?\000\000\200?\000\000\000\000\000\000\340@\000\000`B\000\000\000\000\000\000\200@\000\000HC\000\000\220C\000\000\200?\000\000\000@\000\000\005C\000\000\200?\000\000\200@\000\000@@\000\000\000@\000\000\340@\000\000\204B\000\000\000\000\000\000\200?\000\000\026C\000\000bC\000\000\000\000\000\000\000\000\000\000\344B\000\000\000\000ff&@\000\000@@\000\000\000\000\000\000@@\000\000`B\000\000\200?\000\000\200@\000\000\002C\000\200\215C\000\000\200?\000\000\000@\000\000\316B\000\000\200?\315\314\314?\000\000@@\000\000\000\000\000\000\340@\000\000DB\000\000\200?\000\000@@\000\000\360B\000\000<C\000\000\000\000\000\000\000\000\000\000\013C\000\000\000\000\000\000\000@\000\000\000@\000\000@@\000\000\340@\000\000XB\000\000\200?\000\000\200@\000\000\364B\000\000\217C\000\000\000\000\000\000\000@\000\000\350B\000\000\200?\315\314L@\000\000\000@\000\000\000@\000\000@@\000\000dB\000\000\200?\000\000\200@\000\000\030C\000\000\211C\000\000\000\000\000\000\000\000\000\000\260B\000\000\200?\232\231\231?\000\000\000@\000\000\200?\000\000\340@\000\000\202B\000\000\000\000\000\000@@\000\000 C\000\000\264C\000\000\000\000\000\000\000@\000\000\027C\000\000\000\000\315\314L?\000\000\200?\000\000\000\000\000\000@@\000\000XB\000\000\200?\000\000@@\000\000\372B\000\200\210C\000\000\000\000\000\000\000@\000\000\030C\000\000\000\000\000\000\000?\000\000@@\000\000\200?\000\000@@\000\000XB\000\000\000\000\000\000@@\000\000 C\000\000IC\000\000\000\000\000\000\000\000\000\000#C\000\000\000\000\000\000\000\000\000\000\200?\000\000\200?\000\000@@\000\000xB\000\000\200?\000\000\200@\000\000\360B\000\200\205C\000\000\000\000\000\000\000\000\000\000\306B\000\000\200?ff\346?\000\000\000@\000\000\000@\000\000\340@\000\000PB\000\000\000\000\000\000@@\000\000\010C\000\000DC\000\000\000\000\000\000\000@\000\000)C\000\000\000\000\315\314\314=\000\000\000@\000\000\000\000\000\000@@\000\000PB\000\000\200?\000\000\000@\000\000\006C\000\000IC\000\000\000\000\000\000\000\000\000\000\036C\000\000\000\000\315\314L?\000\000\200?\000\000\200?\000\000@@\000\000pB\000\000\200?\000\000\200@\000\000\352B\000\000fC\000\000\200?\000\000\000\000\000\000 C\000\000\200?33\263?\000\000\200?\000\000\000@\000\000\340@\000\000|B\000\000\000\000\000\000\200@\000\000\330B\000\200\206C\000\000\000\000\000\000\000\000\000\000)C\000\000\200?ff\346?\000\000\000@\000\000\000@\000\000@@\000\000\204B\000\000\200?\000\000\200@\000\000\340B\000\000TC\000\000\000\000\000\000\000@\000\000\004C\000\000\200?\315\314\314=\000\000\200?\000\000\200?\000\000@@\000\000(B\000\000\200?\000\000\200@\000\000\014C\000\000bC\000\000\000\000\000\000\000\000\000\0002C\000\000\000\000\000\000\000\000\000\000\200?\000\000\000\000\000\000@@\000\000\200B\000\000\200?\000\000\200@\000\000\360B\000\000vC\000\000\000\000\000\000\000@\000\000\300B\000\000\200?\315\314\014@\000\000@@\000\000\200?\000\000@@\000\000XB\000\000\200?\000\000@@\000\000\026C\000\000hC\000\000\000\000\000\000\000@\000\000%C\000\000\000\000\315\314\314?\000\000\200?\000\000\000\000\000\000\340@\000\0008B\000\000\000\000\000\000@@\000\000\016C\000\0001C\000\000\000\000\000\000\000@\000\000 C\000\000\200?33\263?\000\000@@\000\000\000\000\000\000@@\000\000\206B\000\000\000\000\000\000@@\000\000\030C\000\200\212C\000\000\000\000\000\000\000\000\000\000,C\000\000\000\000\000\000\000\000\000\000\200?\000\000\200?\000\000@@\000\000`B\000\000\200?\000\000\200@\000\000\372B\000\000yC\000\000\200?\000\000\000@\000\000\020C\000\000\200?\232\231\231?\000\000\000@\000\000\200?\000\000@@\000\000\010B\000\000\000\000\000\000\000@\000\000\354B\000\000RC\000\000\000\000\000\000\000\000\000\000@C\000\000\000\000333?\000\000\200?\000\000\000\000\000\000@@\000\000dB\000\000\200?\000\000\200@\000\000\004C\000\000OC\000\000\000\000\000\000\000\000\000\000(C\000\000\200?\000\000\000\000\000\000\200?\000\000\000\000\000\000\340@\000\000\200B\000\000\200?\000\000\200@\000\000\021C\000\000TC\000\000\000\000\000\000\000@\000\000\004C\000\000\000\000\000\000\000@\000\000\000@\000\000\000@\000\000\300@\000\000lB\000\000\200?\000\000\200@\000\000\nC\000\200\207C\000\000\000\000\000\000\000@\000\0006C\000\000\000\000\000\000\000\000\000\000\200?\000\000\000\000\000\000@@\000\000HB\000\000\200?\000\000@@\000\000\014C\000\000iC\000\000\000\000\000\000\000\000\000\000#C\000\000\000\000\232\231\031?\000\000\000@\000\000\200?\000\000\340@\000\000LB\000\000\200?\000\000\200?\000\000\372B\000\000UC\000\000\000\000\000\000\000@\000\000\372B\000\000\200?33\263?\000\000\200?\000\000\200?\000\000@@\000\000XB\000\000\200?\000\000\000@\000\000@C\000\200\215C\000\000\000\000\000\000\000@\000\000CC\000\000\000\000\000\000\000\000\000\000\200?\000\000\200?\000\000\340@\000\000TB\000\000\200?\000\000\200@\000\000\366B\000\000\215C\000\000\000\000\000\000\000\000\000\000\276B\000\000\200?\000\000\000@\000\000\000@\000\000\000@\000\000\340@\000\000PB\000\000\200?\000\000\200@\000\000\340B\000\000fC\000\000\000\000\000\000\000\000\000\000 C\000\000\000\000\000\000\000\000\000\000\200?\000\000\200?\000\000@@\000\000 B\000\000\200?\000\000\200@\000\000\334B\000\000\'C\000\000\000\000\000\000\000@\000\000\344B\000\000\200?\000\000\000@\000\000\000@\000\000\000\000\000\000\340@\000\000hB\000\000\200?\000\000@@\000\000\004C\000\000`C\000\000\000\000\000\000\000@\000\000-C\000\000\000\000\315\314L@\000\000\200?\000\000\000@\000\000\340@\000\000$B\000\000\000\000\000\000@@\000\000\340B\000\000\206C\000\000\000\000\000\000\000@\000\000,C\000\000\200?\000\000\000\000\000\000\200?\000\000\000\000\000\000@@\000\000$B\000\000\200?\000\000@@\000\000\340B\000\000zC\000\000\000\000\000\000\000\000\000\0003C\000\000\000\000\000\000\000\000\000\000\200?\000\000\000\000\000\000@@\000\000HB\000\000\000\000\000\000@@\000\000\360B\000\000[C\000\000\000\000\000\000\000\000\000\000\036C\000\000\000\000\315\314\314?\000\000\000@\000\000\000\000\000\000@@\000\000XB\000\000\000\000\000\000@@\000\000\330B\000\200\205C\000\000\000\000\000\000\000@\000\000\'C\000\000\000\000\000\000\000\000\000\000\200?\000\000\000\000\000\000@@\000\000\200B\000\000\000\000\000\000\200@\000\000\002C\000\200\227C\000\000\000\000\000\000\000\000\000\000\364B\000\000\000\000\000\000\000@\000\000\000@\000\000\000@\000\000@@\000\000LB\000\000\000\000\000\000@@\000\000\002C\000\000\200C\000\000\000\000\000\000\000@\000\000\025C\000\000\000\000\000\000\000?\000\000\200?\000\000\000\000\000\000@@\000\0008B\000\000\000\000\000\000\000@\000\000\322B\000\000LC\000\000\000\000\000\000\000\000\000\000,C\000\000\000\000\000\000\000\000\000\000\200?\000\000\000\000\000\000@@\000\000\\B\000\000\200?\000\000\200@\000\000\014C\000\000YC\000\000\000\000\000\000\000\000\000\000\336B\000\000\200?33\263@\000\000@@\000\000\000\000\000\000\340@\000\0004B\000\000\200?\000\000\000@\000\000\000C\000\000\232C\000\000\000\000\000\000\000@\000\000*C\000\000\000\000\000\000\000\000\000\000\200?\000\000\000\000\000\000@@\000\000`B\000\000\200?\000\000\200?\000\000\360B\000\000AC\000\000\000\000\000\000\000@\000\000\"C\000\000\000\00033\363?\000\000\000@\000\000\000\000\000\000\340@\000\000\204B\000\000\000\000\000\000\200@\000\0002C\000\000dC\000\000\200?\000\000\000\000\000\000%C\000\000\200?\000\000\200?\000\000\000@\000\000\000@\000\000\340@\000\000\030B\000\000\200?\000\000\200?\000\000\360B\000\000gC\000\000\000\000\000\000\000\000\000\0006C\000\000\200?33s@\000\000\000@\000\000\000\000\000\000\340@\000\000xB\000\000\000\000\000\000\200@\000\000\026C\000\000tC\000\000\000\000\000\000\000\000\000\000\032C\000\000\200?33\263?\000\000\000@\000\000\000\000\000\000@@\000\000\\B\000\000\200?\000\000\000@\000\000\002C\000\000\203C\000\000\000\000\000\000\000\000\000\000\033C\000\000\000\000\000\000\000\000\000\000\200?\000\000\000\000\000\000@@\000\000hB\000\000\200?\000\000\200@\000\000\000C\000\200\201C\000\000\000\000\000\000\000@\000\000\002C\000\000\200?\000\000@@\000\000\000@\000\000\000@\000\000\340@\000\000,B\000\000\200?\000\000\200@\000\000\334B\000\000SC\000\000\000\000\000\000\000\000\000\000!C\000\000\000\000\000\000\000\000\000\000\200?\000\000\000\000\000\000\340@\000\000\200B\000\000\000\000\000\000\200@\000\0004C\000\200\242C\000\000\000\000\000\000\000\000\000\000\032C\000\000\200?\000\000\000\000\000\000\200?\000\000\000\000\000\000@@\000\000HB\000\000\000\000\000\000\200@\000\000\334B\000\000~C\000\000\000\000\000\000\000@\000\000\037C\000\000\000\000\000\000\000\000\000\000\200?\000\000\000\000\000\000@@\000\000TB\000\000\200?\000\000@@\000\000\002C\000\000EC\000\000\200?\000\000\000@\000\000\030C\000\000\000\000\232\231\231?\000\000@@\000\000\000\000\000\000@@\000\0004B\000\000\000\000\000\000\200@\000\000\nC\000\000lC\000\000\000\000\000\000\000@\000\000\030C\000\000\200?\315\314L>\000\000\000@\000\000\000\000\000\000@@\000\000\202B\000\000\200?\000\000\200?\000\000\nC\000\000\215C\000\000\200?\000\000\000@\000\000.C\000\000\000\00033\263?\000\000\000@\000\000\200?\000\000@@\000\000\212B\000\000\200?\000\000\200?\000\000 C\000\000jC\000\000\200?\000\000\000@\000\000\003C\000\000\000\000\315\314\314=\000\000\000@\000\000\200?\000\000@@\000\000\212B\000\000\200?\000\000@@\000\000\014C\000\000~C\000\000\000\000\000\000\000@\000\000\022C\000\000\000\000\000\000\000@\000\000\000@\000\000@@\000\000\340@\000\000\206B\000\000\200?\000\000\200@\000\000\310B\000\200\225C\000\000\000\000\000\000\000@\000\000\372B\000\000\200?fff?\000\000\000@\000\000\000@\000\000@@\000\000\210B\000\000\000\000\000\000@@\000\000\360B\000\000SC\000\000\000\000\000\000\000@\000\000\346B\000\000\000\000\000\000\300?\000\000\000@\000\000\000\000\000\000@@\000\000\010B\000\000\200?\000\000\200?\000\000\354B\000\0006C\000\000\000\000\000\000\000@\000\000.C\000\000\000\000\000\000\000\000\000\000\200?\000\000\000\000\000\000@@\000\000xB\000\000\000\000\000\000\200@\000\000\nC\000\000\223C\000\000\200?\000\000\000\000\000\000\324B\000\000\000\00033\363?\000\000\000@\000\000@@\000\000@@\000\000LB\000\000\200?\000\000\200@\000\000\014C\000\000\225C\000\000\000\000\000\000\000\000\000\000\364B\000\000\200?ff\206@\000\000\000@\000\000@@\000\000\340@\000\0008B\000\000\200?\000\000@@\000\000\026C\000\000gC\000\000\000\000\000\000\000\000\000\000\023C\000\000\000\000fff@\000\000\000@\000\000\000\000\000\000@@\000\000\206B\000\000\200?\000\000\200@\000\000\372B\000\000~C\000\000\200?\000\000\000\000\000\000#C\000\000\000\000\315\314L>\000\000\000@\000\000\000@\000\000\340@\000\000HB\000\000\200?\000\000@@\000\000\001C\000\000DC\000\000\000\000\000\000\000\000\000\000#C\000\000\000\000\000\000\000\000\000\000\200?\000\000\000\000\000\000@@\000\000(B\000\000\200?\000\000@@\000\000\360B\000\000pC\000\000\200?\000\000\000\000\000\000BC\000\000\000\000\315\314L?\000\000@@\000\000\000\000\000\000\340@\000\000`B\000\000\000\000\000\000\200@\000\000\006C\000\200\314C\000\000\000\000\000\000\000@\000\000\026C\000\000\200?33\363?\000\000\000@\000\000\000@\000\000\340@\000\000$B\000\000\200?\000\000\200@\000\000\334B\000\000,C\000\000\000\000\000\000\000@\000\000\036C\000\000\000\000\000\000\000\000\000\000\200?\000\000\000\000\000\000\340@\000\000(B\000\000\000\000\000\000\200@\000\000\314B\000\200\204C\000\000\000\000\000\000\000@\000\000\364B\000\000\000\000\232\231\031?\000\000\000@\000\000\000\000\000\000@@\000\000TB\000\000\200?\000\000@@\000\000\002C\000\000vC\000\000\200?\000\000\000@\000\000-C\000\000\000\000\000\000\000\000\000\000\200?\000\000@@\000\000@@\000\000,B\000\000\200?\000\000@@\000\000\002C\000\200\235C\000\000\000\000\000\000\000\000\000\000\"C\000\000\000\00033\363?\000\000\200?\000\000\200?\000\000@@\000\000`B\000\000\200?\000\000\200@\000\000\004C\000\0008C\000\000\000\000\000\000\000@\000\000\322B\000\000\200?ff\006@\000\000\000@\000\000\200?\000\000\300@\000\000PB\000\000\200?\000\000\200@\000\000\330B\000\000iC\000\000\200?\000\000\000\000\000\000\023C\000\000\000\000\315\314\314=\000\000\200?\000\000@@\000\000\340@\000\000xB\000\000\000\000\000\000\200@\000\000\014C\000\000\305C\000\000\000\000\000\000\000@\000\000\035C\000\000\000\000\232\231\231?\000\000\000@\000\000\000\000\000\000@@\000\000\214B\000\000\200?\000\000@@\000\000 C\000\200\206C\000\000\000\000\000\000\000\000\000\000\340B\000\000\200?\232\2319@\000\000\000@\000\000\200?\000\000\340@\000\000XB\000\000\200?\000\000\200@\000\000\014C\000\000oC\000\000\000\000\000\000\000\000\000\000 C\000\000\000\000\232\231\231?\000\000\200?\000\000\000\000\000\000@@\000\000\214B\000\000\200?\000\000\200@\000\000\021C\000\000.C\000\000\000\000\000\000\000\000\000\000\372B\000\000\200?ff&@\000\000@@\000\000\000\000\000\000\340@\000\000XB\000\000\200?\000\000\000@\000\000\330B\000\200\232C\000\000\000\000\000\000\000\000\000\000\034C\000\000\000\000\000\000\000\000\000\000\200?\000\000\000\000\000\000\340@\000\000\014B\000\000\200?\000\000\200@\000\000\374B\000\000\215C\000\000\000\000\000\000\000@\000\000\034C\000\000\200?\000\000\000\000\000\000\200?\000\000\000\000\000\000\340@\000\000@B\000\000\200?\000\000@@\000\000\370B\000\000\177C\000\000\200?\000\000\000\000\000\000/C\000\000\000\000\000\000\000\000\000\000\200?\000\000\000@\000\000@@\000\000\\B\000\000\000\000\000\000\000@\000\000\007C\000\000zC\000\000\000\000\000\000\000@\000\000!C\000\000\000\00033\263?\000\000\000@\000\000\000\000\000\000@@\000\000hB\000\000\000\000\000\000\200@\000\000\310B\000\000xC\000\000\000\000\000\000\000@\000\000\364B\000\000\000\000\000\000\200?\000\000\000@\000\000\000\000\000\000@@\000\000XB\000\000\000\000\000\000@@\000\000\334B\000\000VC\000\000\000\000\000\000\000\000\000\000\036C\000\000\000\000\315\314\314?\000\000\000@\000\000\000\000\000\000@@\000\000\212B\000\000\000\000\000\000\200?\000\000\014C\000\000oC\000\000\000\000\000\000\000\000\000\000\027C\000\000\000\000ff\346?\000\000\200?\000\000\000@\000\000@@\000\000\232B\000\000\200?\000\000\200@\000\000\372B\000\000\230C\000\000\000\000\000\000\000@\000\000\"C\000\000\200?\000\000\000\000\000\000\200?\000\000@@\000\000@@\000\000\210B\000\000\200?\000\000@@\000\000\354B\000\200\212C\000\000\000\000\000\000\000\000\000\000\027C\000\000\000\000\000\000\200?\000\000\200?\000\000\200?\000\000\340@\000\000hB\000\000\200?\000\000\200@\000\000\372B\000\000\226C\000\000\000\000\000\000\000@\000\000+C\000\000\000\000\000\000\000\000\000\000\200?\000\000\000@\000\000\340@\000\000pB\000\000\200?\000\000\200@\000\000\372B\000\000\201C\000\000\000\000\000\000\000@\000\000\rC\000\000\200?333@\000\000\000@\000\000\200?\000\000\340@\000\000LB\000\000\200?\000\000\200@\000\000\014C\000\200\225C\000\000\000\000\000\000\000\000\000\000-C\000\000\200?\315\314\314?\000\000\200?\000\000\000\000\000\000\340@\000\000\\B\000\000\200?\000\000\200@\000\000 C\000\200\220C\000\000\000\000\000\000\000@\000\000\021C\000\000\200?\315\314L?\000\000\000@\000\000\200?\000\000\340@\000\000PB\000\000\200?\000\000\200?\000\000\030C\000\000\225C\000\000\200?\000\000\000\000\000\0002C\000\000\000\000\232\231\231?\000\000\000@\000\000\000\000\000\000\340@\000\000pB\000\000\000\000\000\000@@\000\000\314B\000\000\237C\000\000\000\000\000\000\000\000\000\000 C\000\000\000\000\000\000\000\000\000\000\200?\000\000\200?\000\000@@\000\000hB\000\000\200?\000\000@@\000\000\322B\000\000pC\000\000\000\000\000\000\000@\000\000\032C\000\000\200?\232\231\031?\000\000\000@\000\000\000\000\000\000\340@\000\000\200B\000\000\200?\000\000@@\000\000\372B\000\200\232C\000\000\000\000\000\000\000\000\000\000\003C\000\000\200?ff\346?\000\000\000@\000\000\000\000\000\000\340@\000\000\024B\000\000\200?\000\000@@\000\000\002C\000\000zC\000\000\000\000\000\000\000\000\000\000;C\000\000\000\000\000\000`@\000\000@@\000\000\000\000\000\000@@\000\000lB\000\000\200?\000\000\200?\000\000*C\000\000\220C\000\000\000\000\000\000\000@\000\000\037C\000\000\000\000\315\314L>\000\000\000@\000\000\000\000\000\000\340@\000\000LB\000\000\200?\000\000@@\000\000\372B\000\000uC\000\000\200?\000\000\000@\000\000&C\000\000\000\000\232\231\031@\000\000\000@\000\000\000\000\000\000@@\000\000,B\000\000\000\000\000\000@@\000\000\364B\000\000UC\000\000\000\000\000\000\000\000\000\000%C\000\000\000\000\315\314L>\000\000\000@\000\000\000\000\000\000@@\000\000hB\000\000\200?\000\000\200@\000\000\000C\000\000XC\000\000\000\000\000\000\000@\000\000\003C\000\000\200?\315\314\014@\000\000\000@\000\000@@\000\000\340@\000\000\350A\000\000\200?\000\000\000@\000\000\002C\000\000LC\000\000\000\000\000\000\000@\000\000JC\000\000\000\000\000\000\000\000\000\000\200?\000\000\000\000\000\000@@\000\000$B\000\000\000\000\000\000\000@\000\000\002C\000\000LC\000\000\000\000\000\000\000@\000\000,C\000\000\000\00033\263?\000\000\200?\000\000\000\000\000\000@@\000\000|B\000\000\000\000\000\000@@\000\000\007C\000\000|C\000\000\000\000\000\000\000@\000\000,C\000\000\000\000\000\000\000\000\000\000\200?\000\000\000\000\000\000@@\000\000LB\000\000\200?\000\000@@\000\000\274B\000\000cC\000\000\000\000\000\000\000\000\000\000\032C\000\000\200?\000\000\000\000\000\000\200?\000\000\200?\000\000\340@\000\000XB\000\000\200?\000\000@@\000\000\360B\000\000\201C\000\000\000\000\000\000\000@\000\000\023C\000\000\000\000\315\314\314>\000\000\000@\000\000\000\000\000\000\340@\000\0000B\000\000\200?\000\000\000@\000\000\360B\000\000\\C\000\000\000\000\000\000\000\000\000\000*C\000\000\000\000\000\000\000\000\000\000\200?\000\000\000\000\000\000@@\000\000XB\000\000\200?\000\000\200@\000\000\334B\000\000oC\000\000\000\000\000\000\000\000\000\000\374B\000\000\200?333@\000\000\000@\000\000\200?\000\000\340@\000\000\202B\000\000\200?\000\000\200@\000\000\007C\000\000~C\000\000\000\000\000\000\000@\000\000\376B\000\000\000\000333@\000\000\000@\000\000\200?\000\000\340@\000\000dB\000\000\200?\000\000@@\000\000\026C\000\000(C\000\000\000\000\000\000\000\000\000\000.C\000\000\000\000\315\314\314?\000\000\200?\000\000\000\000\000\000@@\000\000|B\000\000\200?\000\000\200@\000\000\002C\000\000\245C\000\000\200?\000\000\000@\000\000\004C\000\000\200?ff\346?\000\000\200?\000\000@@\000\000\340@\000\000\014B\000\000\000\000\000\000\200@\000\000\nC\000\0007C\000\000\000\000\000\000\000\000\000\0006C\000\000\000\00033\263?\000\000\200?\000\000\000\000\000\000@@\000\000$B\000\000\200?\000\000\000@\000\000\007C\000\000KC\000\000\000\000\000\000\000\000\000\000\004C\000\000\000\000\000\000\000\000\000\000\000@\000\000\000\000\000\000\300@\000\000xB\000\000\000\000\000\000@@\000\000\002C\000\200\203C\000\000\000\000\000\000\000\000\000\000\302B\000\000\000\000\232\231\231?\000\000\000@\000\000\200?\000\000\340@\000\000,B\000\000\000\000\000\000\200@\000\000\004C\000\200\252C\000\000\200?\000\000\000@\000\000\010C\000\000\200?\000\000@@\000\000\000@\000\000\000\000\000\000\340@\000\000hB\000\000\000\000\000\000\200?\000\000\026C\000\200\215C\000\000\200?\000\000\000@\000\000\"C\000\000\000\000\000\000\200?\000\000\200?\000\000\000\000\000\000@@\000\000PB\000\000\200?\000\000\200?\000\000\354B\000\000:C\000\000\000\000\000\000\000@\000\000>C\000\000\000\000\000\000\000\000\000\000\000@\000\000\000\000\000\000\300@\000\000tB\000\000\000\000\000\000\200@\000\000\021C\000\200\231C\000\000\000\000\000\000\000@\000\000\022C\000\000\200?\000\000\200?\000\000\000@\000\000\000\000\000\000\340@\000\000\034B\000\000\200?\000\000\200@\000\000\354B\000\000[C\000\000\000\000\000\000\000\000\000\000\014C\000\000\000\000\232\231\231?\000\000\000@\000\000\000\000\000\000\340@\000\0004B\000\000\200?\000\000\200@\000\000\346B\000\000\202C\000\000\000\000\000\000\000@\000\0009C\000\000\000\000\000\000\000\000\000\000\200?\000\000\000\000\000\000@@\000\000PB\000\000\200?\000\000\200@\000\000\000C\000\000\177C\000\000\000\000\000\000\000\000\000\000!C\000\000\200?\000\000\000\000\000\000\200?\000\000\200?\000\000\340@\000\000xB\000\000\200?\000\000@@\000\000\002C\000\000gC\000\000\000\000\000\000\000\000\000\000\022C\000\000\000\000ff\346?\000\000\000@\000\000@@\000\000\340@\000\000xB\000\000\000\000\000\000\200@\000\000 C\000\000$C\000\000\000\000\000\000\000@\000\000\021C\000\000\000\000ff\306@\000\000@@\000\000@@\000\000\340@\000\000TB\000\000\000\000\000\000\200@\000\000\nC\000\000jC\000\000\000\000\000\000\000@\000\000 C\000\000\000\000\000\000\000\000\000\000\200?\000\000\000\000\000\000@@\000\000,B\000\000\200?\000\000\200@\000\000\360B\000\0001C\000\000\000\000\000\000\000@\000\000\360B\000\000\200?\000\000 @\000\000\000@\000\000\000\000\000\000\340@\000\000<B\000\000\200?\000\000@@\000\000\nC\000\200\200C\000\000\000\000\000\000\000@\000\000\034C\000\000\000\000\000\000\000\000\000\000\200?\000\000\000\000\000\000@@\000\000PB\000\000\200?\000\000\000@\000\000\360B\000\200\242C\000\000\000\000\000\000\000\000\000\000,C\000\000\000\000\315\314L>\000\000\200?\000\000\000\000\000\000@@\000\000\210B\000\000\200?\000\000@@\000\0004C\000\000\211C\000\000\200?\000\000\000@\000\000\026C\000\000\200?\315\314\314?\000\000\000@\000\000\000\000\000\000\340@\000\000\034B\000\000\200?\000\000@@\000\000\014C\000\200\240C\000\000\000\000\000\000\000@\000\0006C\000\000\000\000\000\000\000\000\000\000\200?\000\000\000\000\000\000@@\000\000TB\000\000\000\000\000\000\200@\000\000\002C\000\000\204C\000\000\000\000\000\000\000@\000\000\017C\000\000\000\000\315\314\314>\000\000\000@\000\000\000\000\000\000@@\000\000xB\000\000\000\000\000\000\200@\000\000\014C\000\000\206C\000\000\000\000\000\000\000@\000\000 C\000\000\000\000fff@\000\000@@\000\000\000@\000\000@@\000\000LB\000\000\000\000\000\000@@\000\000\014C\000\000\232C\000\000\000\000\000\000\000@\000\000\016C\000\000\000\000\000\000\300?\000\000\200?\000\000\200?\000\000@@\000\000pB\000\000\200?\000\000\200@\000\000\002C\000\000}C\000\000\000\000\000\000\000\000\000\000\020C\000\000\200?33\263?\000\000\200?\000\000\200?\000\000\340@\000\000\202B\000\000\200?\000\000\200@\000\000\334B\000\000xC\000\000\000\000\000\000\000@\000\000\036C\000\000\000\000\232\231\031?\000\000\200?\000\000\000@\000\000\300@\000\000\202B\000\000\000\000\000\000@@\000\000\033C\000\200\206C\000\000\000\000\000\000\000\000\000\000\024C\000\000\000\000\315\314L?\000\000\200?\000\000\000\000\000\000@@\000\000pB\000\000\200?\000\000@@\000\000\014C\000\0009C\000\000\000\000\000\000\000@\000\000\033C\000\000\000\000\000\000@@\000\000\000@\000\000\000\000\000\000@@\000\000pB\000\000\200?\000\000\200@\000\000\021C\000\000\215C\000\000\000\000\000\000\000@\000\000\016C\000\000\200?333@\000\000\000@\000\000\000@\000\000\340@"
      }
    }
  }
}
node {
  name: "Const_1"
  op: "Const"
  attr {
    key: "_output_shapes"
    value {
      list {
        shape {
          dim {
            size: 250
          }
        }
      }
    }
  }
  attr {
    key: "dtype"
    value {
      type: DT_INT64
    }
  }
  attr {
    key: "value"
    value {
      tensor {
        dtype: DT_INT64
        tensor_shape {
          dim {
            size: 250
          }
        }
        tensor_content: "\002\000\000\000\000\000\000\000\001\000\000\000\000\000\000\000\002\000\000\000\000\000\000\000\001\000\000\000\000\000\000\000\001\000\000\000\000\000\000\000\001\000\000\000\000\000\000\000\002\000\000\000\000\000\000\000\002\000\000\000\000\000\000\000\002\000\000\000\000\000\000\000\002\000\000\000\000\000\000\000\001\000\000\000\000\000\000\000\001\000\000\000\000\000\000\000\001\000\000\000\000\000\000\000\002\000\000\000\000\000\000\000\001\000\000\000\000\000\000\000\001\000\000\000\000\000\000\000\002\000\000\000\000\000\000\000\002\000\000\000\000\000\000\000\001\000\000\000\000\000\000\000\001\000\000\000\000\000\000\000\002\000\000\000\000\000\000\000\001\000\000\000\000\000\000\000\001\000\000\000\000\000\000\000\001\000\000\000\000\000\000\000\001\000\000\000\000\000\000\000\001\000\000\000\000\000\000\000\001\000\000\000\000\000\000\000\001\000\000\000\000\000\000\000\002\000\000\000\000\000\000\000\001\000\000\000\000\000\000\000\002\000\000\000\000\000\000\000\001\000\000\000\000\000\000\000\001\000\000\000\000\000\000\000\002\000\000\000\000\000\000\000\002\000\000\000\000\000\000\000\002\000\000\000\000\000\000\000\002\000\000\000\000\000\000\000\002\000\000\000\000\000\000\000\001\000\000\000\000\000\000\000\001\000\000\000\000\000\000\000\002\000\000\000\000\000\000\000\001\000\000\000\000\000\000\000\001\000\000\000\000\000\000\000\001\000\000\000\000\000\000\000\002\000\000\000\000\000\000\000\001\000\000\000\000\000\000\000\002\000\000\000\000\000\000\000\002\000\000\000\000\000\000\000\002\000\000\000\000\000\000\000\002\000\000\000\000\000\000\000\002\000\000\000\000\000\000\000\001\000\000\000\000\000\000\000\001\000\000\000\000\000\000\000\001\000\000\000\000\000\000\000\001\000\000\000\000\000\000\000\001\000\000\000\000\000\000\000\002\000\000\000\000\000\000\000\001\000\000\000\000\000\000\000\002\000\000\000\000\000\000\000\002\000\000\000\000\000\000\000\001\000\000\000\000\000\000\000\002\000\000\000\000\000\000\000\001\000\000\000\000\000\000\000\001\000\000\000\000\000\000\000\001\000\000\000\000\000\000\000\002\000\000\000\000\000\000\000\001\000\000\000\000\000\000\000\002\000\000\000\000\000\000\000\001\000\000\000\000\000\000\000\002\000\000\000\000\000\000\000\002\000\000\000\000\000\000\000\001\000\000\000\000\000\000\000\001\000\000\000\000\000\000\000\001\000\000\000\000\000\000\000\001\000\000\000\000\000\000\000\002\000\000\000\000\000\000\000\001\000\000\000\000\000\000\000\001\000\000\000\000\000\000\000\001\000\000\000\000\000\000\000\001\000\000\000\000\000\000\000\002\000\000\000\000\000\000\000\002\000\000\000\000\000\000\000\002\000\000\000\000\000\000\000\001\000\000\000\000\000\000\000\001\000\000\000\000\000\000\000\001\000\000\000\000\000\000\000\001\000\000\000\000\000\000\000\001\000\000\000\000\000\000\000\001\000\000\000\000\000\000\000\002\000\000\000\000\000\000\000\001\000\000\000\000\000\000\000\002\000\000\000\000\000\000\000\002\000\000\000\000\000\000\000\002\000\000\000\000\000\000\000\002\000\000\000\000\000\000\000\002\000\000\000\000\000\000\000\001\000\000\000\000\000\000\000\002\000\000\000\000\000\000\000\001\000\000\000\000\000\000\000\001\000\000\000\000\000\000\000\001\000\000\000\000\000\000\000\002\000\000\000\000\000\000\000\001\000\000\000\000\000\000\000\002\000\000\000\000\000\000\000\002\000\000\000\000\000\000\000\002\000\000\000\000\000\000\000\001\000\000\000\000\000\000\000\002\000\000\000\000\000\000\000\002\000\000\000\000\000\000\000\001\000\000\000\000\000\000\000\002\000\000\000\000\000\000\000\001\000\000\000\000\000\000\000\002\000\000\000\000\000\000\000\001\000\000\000\000\000\000\000\001\000\000\000\000\000\000\000\001\000\000\000\000\000\000\000\002\000\000\000\000\000\000\000\002\000\000\000\000\000\000\000\001\000\000\000\000\000\000\000\002\000\000\000\000\000\000\000\002\000\000\000\000\000\000\000\002\000\000\000\000\000\000\000\002\000\000\000\000\000\000\000\001\000\000\000\000\000\000\000\001\000\000\000\000\000\000\000\001\000\000\000\000\000\000\000\002\000\000\000\000\000\000\000\001\000\000\000\000\000\000\000\001\000\000\000\000\000\000\000\002\000\000\000\000\000\000\000\002\000\000\000\000\000\000\000\002\000\000\000\000\000\000\000\001\000\000\000\000\000\000\000\002\000\000\000\000\000\000\000\001\000\000\000\000\000\000\000\001\000\000\000\000\000\000\000\001\000\000\000\000\000\000\000\002\000\000\000\000\000\000\000\001\000\000\000\000\000\000\000\001\000\000\000\000\000\000\000\002\000\000\000\000\000\000\000\001\000\000\000\000\000\000\000\002\000\000\000\000\000\000\000\001\000\000\000\000\000\000\000\002\000\000\000\000\000\000\000\002\000\000\000\000\000\000\000\002\000\000\000\000\000\000\000\002\000\000\000\000\000\000\000\002\000\000\000\000\000\000\000\001\000\000\000\000\000\000\000\001\000\000\000\000\000\000\000\001\000\000\000\000\000\000\000\001\000\000\000\000\000\000\000\001\000\000\000\000\000\000\000\001\000\000\000\000\000\000\000\001\000\000\000\000\000\000\000\002\000\000\000\000\000\000\000\001\000\000\000\000\000\000\000\001\000\000\000\000\000\000\000\002\000\000\000\000\000\000\000\002\000\000\000\000\000\000\000\002\000\000\000\000\000\000\000\001\000\000\000\000\000\000\000\002\000\000\000\000\000\000\000\001\000\000\000\000\000\000\000\001\000\000\000\000\000\000\000\001\000\000\000\000\000\000\000\001\000\000\000\000\000\000\000\001\000\000\000\000\000\000\000\002\000\000\000\000\000\000\000\001\000\000\000\000\000\000\000\002\000\000\000\000\000\000\000\002\000\000\000\000\000\000\000\001\000\000\000\000\000\000\000\001\000\000\000\000\000\000\000\002\000\000\000\000\000\000\000\002\000\000\000\000\000\000\000\002\000\000\000\000\000\000\000\002\000\000\000\000\000\000\000\001\000\000\000\000\000\000\000\001\000\000\000\000\000\000\000\002\000\000\000\000\000\000\000\002\000\000\000\000\000\000\000\001\000\000\000\000\000\000\000\001\000\000\000\000\000\000\000\001\000\000\000\000\000\000\000\002\000\000\000\000\000\000\000\001\000\000\000\000\000\000\000\001\000\000\000\000\000\000\000\002\000\000\000\000\000\000\000\001\000\000\000\000\000\000\000\002\000\000\000\000\000\000\000\001\000\000\000\000\000\000\000\002\000\000\000\000\000\000\000\001\000\000\000\000\000\000\000\001\000\000\000\000\000\000\000\001\000\000\000\000\000\000\000\001\000\000\000\000\000\000\000\001\000\000\000\000\000\000\000\002\000\000\000\000\000\000\000\001\000\000\000\000\000\000\000\002\000\000\000\000\000\000\000\002\000\000\000\000\000\000\000\002\000\000\000\000\000\000\000\002\000\000\000\000\000\000\000\001\000\000\000\000\000\000\000\001\000\000\000\000\000\000\000\001\000\000\000\000\000\000\000\002\000\000\000\000\000\000\000\001\000\000\000\000\000\000\000\002\000\000\000\000\000\000\000\001\000\000\000\000\000\000\000\001\000\000\000\000\000\000\000\002\000\000\000\000\000\000\000\001\000\000\000\000\000\000\000\001\000\000\000\000\000\000\000\001\000\000\000\000\000\000\000\001\000\000\000\000\000\000\000\001\000\000\000\000\000\000\000\001\000\000\000\000\000\000\000\002\000\000\000\000\000\000\000\002\000\000\000\000\000\000\000\001\000\000\000\000\000\000\000\002\000\000\000\000\000\000\000\001\000\000\000\000\000\000\000\001\000\000\000\000\000\000\000\002\000\000\000\000\000\000\000\002\000\000\000\000\000\000\000\001\000\000\000\000\000\000\000\001\000\000\000\000\000\000\000\002\000\000\000\000\000\000\000\002\000\000\000\000\000\000\000\001\000\000\000\000\000\000\000\002\000\000\000\000\000\000\000\001\000\000\000\000\000\000\000\002\000\000\000\000\000\000\000\001\000\000\000\000\000\000\000\002\000\000\000\000\000\000\000\001\000\000\000\000\000\000\000\001\000\000\000\000\000\000\000\002\000\000\000\000\000\000\000\001\000\000\000\000\000\000\000\001\000\000\000\000\000\000\000\002\000\000\000\000\000\000\000\001\000\000\000\000\000\000\000\002\000\000\000\000\000\000\000\002\000\000\000\000\000\000\000\001\000\000\000\000\000\000\000\002\000\000\000\000\000\000\000\002\000\000\000\000\000\000\000"
      }
    }
  }
}
node {
  name: "dnn/input_from_feature_columns/input_from_feature_columns/concat/concat_dim"
  op: "Const"
  attr {
    key: "_output_shapes"
    value {
      list {
        shape {
        }
      }
    }
  }
  attr {
    key: "dtype"
    value {
      type: DT_INT32
    }
  }
  attr {
    key: "value"
    value {
      tensor {
        dtype: DT_INT32
        tensor_shape {
        }
        int_val: 1
      }
    }
  }
}
node {
  name: "dnn/input_from_feature_columns/input_from_feature_columns/concat"
  op: "Identity"
  input: "Const"
  attr {
    key: "T"
    value {
      type: DT_FLOAT
    }
  }
  attr {
    key: "_output_shapes"
    value {
      list {
        shape {
          dim {
            size: 250
          }
          dim {
            size: 13
          }
        }
      }
    }
  }
}
node {
  name: "dnn/hiddenlayer_0/weights/part_0/Initializer/random_uniform/shape"
  op: "Const"
  attr {
    key: "_class"
    value {
      list {
        s: "loc:@dnn/hiddenlayer_0/weights/part_0"
      }
    }
  }
  attr {
    key: "_output_shapes"
    value {
      list {
        shape {
          dim {
            size: 2
          }
        }
      }
    }
  }
  attr {
    key: "dtype"
    value {
      type: DT_INT32
    }
  }
  attr {
    key: "value"
    value {
      tensor {
        dtype: DT_INT32
        tensor_shape {
          dim {
            size: 2
          }
        }
        tensor_content: "\r\000\000\000\036\000\000\000"
      }
    }
  }
}
node {
  name: "dnn/hiddenlayer_0/weights/part_0/Initializer/random_uniform/min"
  op: "Const"
  attr {
    key: "_class"
    value {
      list {
        s: "loc:@dnn/hiddenlayer_0/weights/part_0"
      }
    }
  }
  attr {
    key: "_output_shapes"
    value {
      list {
        shape {
        }
      }
    }
  }
  attr {
    key: "dtype"
    value {
      type: DT_FLOAT
    }
  }
  attr {
    key: "value"
    value {
      tensor {
        dtype: DT_FLOAT
        tensor_shape {
        }
        float_val: -0.3735436797142029
      }
    }
  }
}
node {
  name: "dnn/hiddenlayer_0/weights/part_0/Initializer/random_uniform/max"
  op: "Const"
  attr {
    key: "_class"
    value {
      list {
        s: "loc:@dnn/hiddenlayer_0/weights/part_0"
      }
    }
  }
  attr {
    key: "_output_shapes"
    value {
      list {
        shape {
        }
      }
    }
  }
  attr {
    key: "dtype"
    value {
      type: DT_FLOAT
    }
  }
  attr {
    key: "value"
    value {
      tensor {
        dtype: DT_FLOAT
        tensor_shape {
        }
        float_val: 0.3735436797142029
      }
    }
  }
}
node {
  name: "dnn/hiddenlayer_0/weights/part_0/Initializer/random_uniform/RandomUniform"
  op: "RandomUniform"
  input: "dnn/hiddenlayer_0/weights/part_0/Initializer/random_uniform/shape"
  attr {
    key: "T"
    value {
      type: DT_INT32
    }
  }
  attr {
    key: "_class"
    value {
      list {
        s: "loc:@dnn/hiddenlayer_0/weights/part_0"
      }
    }
  }
  attr {
    key: "_output_shapes"
    value {
      list {
        shape {
          dim {
            size: 13
          }
          dim {
            size: 30
          }
        }
      }
    }
  }
  attr {
    key: "dtype"
    value {
      type: DT_FLOAT
    }
  }
  attr {
    key: "seed"
    value {
      i: 0
    }
  }
  attr {
    key: "seed2"
    value {
      i: 0
    }
  }
}
node {
  name: "dnn/hiddenlayer_0/weights/part_0/Initializer/random_uniform/sub"
  op: "Sub"
  input: "dnn/hiddenlayer_0/weights/part_0/Initializer/random_uniform/max"
  input: "dnn/hiddenlayer_0/weights/part_0/Initializer/random_uniform/min"
  attr {
    key: "T"
    value {
      type: DT_FLOAT
    }
  }
  attr {
    key: "_class"
    value {
      list {
        s: "loc:@dnn/hiddenlayer_0/weights/part_0"
      }
    }
  }
  attr {
    key: "_output_shapes"
    value {
      list {
        shape {
        }
      }
    }
  }
}
node {
  name: "dnn/hiddenlayer_0/weights/part_0/Initializer/random_uniform/mul"
  op: "Mul"
  input: "dnn/hiddenlayer_0/weights/part_0/Initializer/random_uniform/RandomUniform"
  input: "dnn/hiddenlayer_0/weights/part_0/Initializer/random_uniform/sub"
  attr {
    key: "T"
    value {
      type: DT_FLOAT
    }
  }
  attr {
    key: "_class"
    value {
      list {
        s: "loc:@dnn/hiddenlayer_0/weights/part_0"
      }
    }
  }
  attr {
    key: "_output_shapes"
    value {
      list {
        shape {
          dim {
            size: 13
          }
          dim {
            size: 30
          }
        }
      }
    }
  }
}
node {
  name: "dnn/hiddenlayer_0/weights/part_0/Initializer/random_uniform"
  op: "Add"
  input: "dnn/hiddenlayer_0/weights/part_0/Initializer/random_uniform/mul"
  input: "dnn/hiddenlayer_0/weights/part_0/Initializer/random_uniform/min"
  attr {
    key: "T"
    value {
      type: DT_FLOAT
    }
  }
  attr {
    key: "_class"
    value {
      list {
        s: "loc:@dnn/hiddenlayer_0/weights/part_0"
      }
    }
  }
  attr {
    key: "_output_shapes"
    value {
      list {
        shape {
          dim {
            size: 13
          }
          dim {
            size: 30
          }
        }
      }
    }
  }
}
node {
  name: "dnn/hiddenlayer_0/weights/part_0"
  op: "VariableV2"
  attr {
    key: "_class"
    value {
      list {
        s: "loc:@dnn/hiddenlayer_0/weights/part_0"
      }
    }
  }
  attr {
    key: "_output_shapes"
    value {
      list {
        shape {
          dim {
            size: 13
          }
          dim {
            size: 30
          }
        }
      }
    }
  }
  attr {
    key: "container"
    value {
      s: ""
    }
  }
  attr {
    key: "dtype"
    value {
      type: DT_FLOAT
    }
  }
  attr {
    key: "shape"
    value {
      shape {
        dim {
          size: 13
        }
        dim {
          size: 30
        }
      }
    }
  }
  attr {
    key: "shared_name"
    value {
      s: ""
    }
  }
}
node {
  name: "dnn/hiddenlayer_0/weights/part_0/Assign"
  op: "Assign"
  input: "dnn/hiddenlayer_0/weights/part_0"
  input: "dnn/hiddenlayer_0/weights/part_0/Initializer/random_uniform"
  attr {
    key: "T"
    value {
      type: DT_FLOAT
    }
  }
  attr {
    key: "_class"
    value {
      list {
        s: "loc:@dnn/hiddenlayer_0/weights/part_0"
      }
    }
  }
  attr {
    key: "_output_shapes"
    value {
      list {
        shape {
          dim {
            size: 13
          }
          dim {
            size: 30
          }
        }
      }
    }
  }
  attr {
    key: "use_locking"
    value {
      b: true
    }
  }
  attr {
    key: "validate_shape"
    value {
      b: true
    }
  }
}
node {
  name: "dnn/hiddenlayer_0/weights/part_0/read"
  op: "Identity"
  input: "dnn/hiddenlayer_0/weights/part_0"
  attr {
    key: "T"
    value {
      type: DT_FLOAT
    }
  }
  attr {
    key: "_class"
    value {
      list {
        s: "loc:@dnn/hiddenlayer_0/weights/part_0"
      }
    }
  }
  attr {
    key: "_output_shapes"
    value {
      list {
        shape {
          dim {
            size: 13
          }
          dim {
            size: 30
          }
        }
      }
    }
  }
}
node {
  name: "dnn/hiddenlayer_0/biases/part_0/Initializer/Const"
  op: "Const"
  attr {
    key: "_class"
    value {
      list {
        s: "loc:@dnn/hiddenlayer_0/biases/part_0"
      }
    }
  }
  attr {
    key: "_output_shapes"
    value {
      list {
        shape {
          dim {
            size: 30
          }
        }
      }
    }
  }
  attr {
    key: "dtype"
    value {
      type: DT_FLOAT
    }
  }
  attr {
    key: "value"
    value {
      tensor {
        dtype: DT_FLOAT
        tensor_shape {
          dim {
            size: 30
          }
        }
        float_val: 0.0
      }
    }
  }
}
node {
  name: "dnn/hiddenlayer_0/biases/part_0"
  op: "VariableV2"
  attr {
    key: "_class"
    value {
      list {
        s: "loc:@dnn/hiddenlayer_0/biases/part_0"
      }
    }
  }
  attr {
    key: "_output_shapes"
    value {
      list {
        shape {
          dim {
            size: 30
          }
        }
      }
    }
  }
  attr {
    key: "container"
    value {
      s: ""
    }
  }
  attr {
    key: "dtype"
    value {
      type: DT_FLOAT
    }
  }
  attr {
    key: "shape"
    value {
      shape {
        dim {
          size: 30
        }
      }
    }
  }
  attr {
    key: "shared_name"
    value {
      s: ""
    }
  }
}
node {
  name: "dnn/hiddenlayer_0/biases/part_0/Assign"
  op: "Assign"
  input: "dnn/hiddenlayer_0/biases/part_0"
  input: "dnn/hiddenlayer_0/biases/part_0/Initializer/Const"
  attr {
    key: "T"
    value {
      type: DT_FLOAT
    }
  }
  attr {
    key: "_class"
    value {
      list {
        s: "loc:@dnn/hiddenlayer_0/biases/part_0"
      }
    }
  }
  attr {
    key: "_output_shapes"
    value {
      list {
        shape {
          dim {
            size: 30
          }
        }
      }
    }
  }
  attr {
    key: "use_locking"
    value {
      b: true
    }
  }
  attr {
    key: "validate_shape"
    value {
      b: true
    }
  }
}
node {
  name: "dnn/hiddenlayer_0/biases/part_0/read"
  op: "Identity"
  input: "dnn/hiddenlayer_0/biases/part_0"
  attr {
    key: "T"
    value {
      type: DT_FLOAT
    }
  }
  attr {
    key: "_class"
    value {
      list {
        s: "loc:@dnn/hiddenlayer_0/biases/part_0"
      }
    }
  }
  attr {
    key: "_output_shapes"
    value {
      list {
        shape {
          dim {
            size: 30
          }
        }
      }
    }
  }
}
node {
  name: "dnn/hiddenlayer_0/weights"
  op: "Identity"
  input: "dnn/hiddenlayer_0/weights/part_0/read"
  attr {
    key: "T"
    value {
      type: DT_FLOAT
    }
  }
  attr {
    key: "_output_shapes"
    value {
      list {
        shape {
          dim {
            size: 13
          }
          dim {
            size: 30
          }
        }
      }
    }
  }
}
node {
  name: "dnn/hiddenlayer_0/MatMul"
  op: "MatMul"
  input: "dnn/input_from_feature_columns/input_from_feature_columns/concat"
  input: "dnn/hiddenlayer_0/weights"
  attr {
    key: "T"
    value {
      type: DT_FLOAT
    }
  }
  attr {
    key: "_output_shapes"
    value {
      list {
        shape {
          dim {
            size: 250
          }
          dim {
            size: 30
          }
        }
      }
    }
  }
  attr {
    key: "transpose_a"
    value {
      b: false
    }
  }
  attr {
    key: "transpose_b"
    value {
      b: false
    }
  }
}
node {
  name: "dnn/hiddenlayer_0/biases"
  op: "Identity"
  input: "dnn/hiddenlayer_0/biases/part_0/read"
  attr {
    key: "T"
    value {
      type: DT_FLOAT
    }
  }
  attr {
    key: "_output_shapes"
    value {
      list {
        shape {
          dim {
            size: 30
          }
        }
      }
    }
  }
}
node {
  name: "dnn/hiddenlayer_0/BiasAdd"
  op: "BiasAdd"
  input: "dnn/hiddenlayer_0/MatMul"
  input: "dnn/hiddenlayer_0/biases"
  attr {
    key: "T"
    value {
      type: DT_FLOAT
    }
  }
  attr {
    key: "_output_shapes"
    value {
      list {
        shape {
          dim {
            size: 250
          }
          dim {
            size: 30
          }
        }
      }
    }
  }
  attr {
    key: "data_format"
    value {
      s: "NHWC"
    }
  }
}
node {
  name: "dnn/hiddenlayer_0/hiddenlayer_0/Relu"
  op: "Relu"
  input: "dnn/hiddenlayer_0/BiasAdd"
  attr {
    key: "T"
    value {
      type: DT_FLOAT
    }
  }
  attr {
    key: "_output_shapes"
    value {
      list {
        shape {
          dim {
            size: 250
          }
          dim {
            size: 30
          }
        }
      }
    }
  }
}
node {
  name: "zero_fraction/zero"
  op: "Const"
  attr {
    key: "_output_shapes"
    value {
      list {
        shape {
        }
      }
    }
  }
  attr {
    key: "dtype"
    value {
      type: DT_FLOAT
    }
  }
  attr {
    key: "value"
    value {
      tensor {
        dtype: DT_FLOAT
        tensor_shape {
        }
        float_val: 0.0
      }
    }
  }
}
node {
  name: "zero_fraction/Equal"
  op: "Equal"
  input: "dnn/hiddenlayer_0/hiddenlayer_0/Relu"
  input: "zero_fraction/zero"
  attr {
    key: "T"
    value {
      type: DT_FLOAT
    }
  }
  attr {
    key: "_output_shapes"
    value {
      list {
        shape {
          dim {
            size: 250
          }
          dim {
            size: 30
          }
        }
      }
    }
  }
}
node {
  name: "zero_fraction/Cast"
  op: "Cast"
  input: "zero_fraction/Equal"
  attr {
    key: "DstT"
    value {
      type: DT_FLOAT
    }
  }
  attr {
    key: "SrcT"
    value {
      type: DT_BOOL
    }
  }
  attr {
    key: "_output_shapes"
    value {
      list {
        shape {
          dim {
            size: 250
          }
          dim {
            size: 30
          }
        }
      }
    }
  }
}
node {
  name: "zero_fraction/Const"
  op: "Const"
  attr {
    key: "_output_shapes"
    value {
      list {
        shape {
          dim {
            size: 2
          }
        }
      }
    }
  }
  attr {
    key: "dtype"
    value {
      type: DT_INT32
    }
  }
  attr {
    key: "value"
    value {
      tensor {
        dtype: DT_INT32
        tensor_shape {
          dim {
            size: 2
          }
        }
        tensor_content: "\000\000\000\000\001\000\000\000"
      }
    }
  }
}
node {
  name: "zero_fraction/Mean"
  op: "Mean"
  input: "zero_fraction/Cast"
  input: "zero_fraction/Const"
  attr {
    key: "T"
    value {
      type: DT_FLOAT
    }
  }
  attr {
    key: "Tidx"
    value {
      type: DT_INT32
    }
  }
  attr {
    key: "_output_shapes"
    value {
      list {
        shape {
        }
      }
    }
  }
  attr {
    key: "keep_dims"
    value {
      b: false
    }
  }
}
node {
  name: "dnn/hiddenlayer_0_fraction_of_zero_values/tags"
  op: "Const"
  attr {
    key: "_output_shapes"
    value {
      list {
        shape {
        }
      }
    }
  }
  attr {
    key: "dtype"
    value {
      type: DT_STRING
    }
  }
  attr {
    key: "value"
    value {
      tensor {
        dtype: DT_STRING
        tensor_shape {
        }
        string_val: "dnn/hiddenlayer_0_fraction_of_zero_values"
      }
    }
  }
}
node {
  name: "dnn/hiddenlayer_0_fraction_of_zero_values"
  op: "ScalarSummary"
  input: "dnn/hiddenlayer_0_fraction_of_zero_values/tags"
  input: "zero_fraction/Mean"
  attr {
    key: "T"
    value {
      type: DT_FLOAT
    }
  }
  attr {
    key: "_output_shapes"
    value {
      list {
        shape {
        }
      }
    }
  }
}
node {
  name: "dnn/hiddenlayer_0_activation/tag"
  op: "Const"
  attr {
    key: "_output_shapes"
    value {
      list {
        shape {
        }
      }
    }
  }
  attr {
    key: "dtype"
    value {
      type: DT_STRING
    }
  }
  attr {
    key: "value"
    value {
      tensor {
        dtype: DT_STRING
        tensor_shape {
        }
        string_val: "dnn/hiddenlayer_0_activation"
      }
    }
  }
}
node {
  name: "dnn/hiddenlayer_0_activation"
  op: "HistogramSummary"
  input: "dnn/hiddenlayer_0_activation/tag"
  input: "dnn/hiddenlayer_0/hiddenlayer_0/Relu"
  attr {
    key: "T"
    value {
      type: DT_FLOAT
    }
  }
  attr {
    key: "_output_shapes"
    value {
      list {
        shape {
        }
      }
    }
  }
}
node {
  name: "dnn/hiddenlayer_1/weights/part_0/Initializer/random_uniform/shape"
  op: "Const"
  attr {
    key: "_class"
    value {
      list {
        s: "loc:@dnn/hiddenlayer_1/weights/part_0"
      }
    }
  }
  attr {
    key: "_output_shapes"
    value {
      list {
        shape {
          dim {
            size: 2
          }
        }
      }
    }
  }
  attr {
    key: "dtype"
    value {
      type: DT_INT32
    }
  }
  attr {
    key: "value"
    value {
      tensor {
        dtype: DT_INT32
        tensor_shape {
          dim {
            size: 2
          }
        }
        tensor_content: "\036\000\000\000-\000\000\000"
      }
    }
  }
}
node {
  name: "dnn/hiddenlayer_1/weights/part_0/Initializer/random_uniform/min"
  op: "Const"
  attr {
    key: "_class"
    value {
      list {
        s: "loc:@dnn/hiddenlayer_1/weights/part_0"
      }
    }
  }
  attr {
    key: "_output_shapes"
    value {
      list {
        shape {
        }
      }
    }
  }
  attr {
    key: "dtype"
    value {
      type: DT_FLOAT
    }
  }
  attr {
    key: "value"
    value {
      tensor {
        dtype: DT_FLOAT
        tensor_shape {
        }
        float_val: -0.2828427255153656
      }
    }
  }
}
node {
  name: "dnn/hiddenlayer_1/weights/part_0/Initializer/random_uniform/max"
  op: "Const"
  attr {
    key: "_class"
    value {
      list {
        s: "loc:@dnn/hiddenlayer_1/weights/part_0"
      }
    }
  }
  attr {
    key: "_output_shapes"
    value {
      list {
        shape {
        }
      }
    }
  }
  attr {
    key: "dtype"
    value {
      type: DT_FLOAT
    }
  }
  attr {
    key: "value"
    value {
      tensor {
        dtype: DT_FLOAT
        tensor_shape {
        }
        float_val: 0.2828427255153656
      }
    }
  }
}
node {
  name: "dnn/hiddenlayer_1/weights/part_0/Initializer/random_uniform/RandomUniform"
  op: "RandomUniform"
  input: "dnn/hiddenlayer_1/weights/part_0/Initializer/random_uniform/shape"
  attr {
    key: "T"
    value {
      type: DT_INT32
    }
  }
  attr {
    key: "_class"
    value {
      list {
        s: "loc:@dnn/hiddenlayer_1/weights/part_0"
      }
    }
  }
  attr {
    key: "_output_shapes"
    value {
      list {
        shape {
          dim {
            size: 30
          }
          dim {
            size: 45
          }
        }
      }
    }
  }
  attr {
    key: "dtype"
    value {
      type: DT_FLOAT
    }
  }
  attr {
    key: "seed"
    value {
      i: 0
    }
  }
  attr {
    key: "seed2"
    value {
      i: 0
    }
  }
}
node {
  name: "dnn/hiddenlayer_1/weights/part_0/Initializer/random_uniform/sub"
  op: "Sub"
  input: "dnn/hiddenlayer_1/weights/part_0/Initializer/random_uniform/max"
  input: "dnn/hiddenlayer_1/weights/part_0/Initializer/random_uniform/min"
  attr {
    key: "T"
    value {
      type: DT_FLOAT
    }
  }
  attr {
    key: "_class"
    value {
      list {
        s: "loc:@dnn/hiddenlayer_1/weights/part_0"
      }
    }
  }
  attr {
    key: "_output_shapes"
    value {
      list {
        shape {
        }
      }
    }
  }
}
node {
  name: "dnn/hiddenlayer_1/weights/part_0/Initializer/random_uniform/mul"
  op: "Mul"
  input: "dnn/hiddenlayer_1/weights/part_0/Initializer/random_uniform/RandomUniform"
  input: "dnn/hiddenlayer_1/weights/part_0/Initializer/random_uniform/sub"
  attr {
    key: "T"
    value {
      type: DT_FLOAT
    }
  }
  attr {
    key: "_class"
    value {
      list {
        s: "loc:@dnn/hiddenlayer_1/weights/part_0"
      }
    }
  }
  attr {
    key: "_output_shapes"
    value {
      list {
        shape {
          dim {
            size: 30
          }
          dim {
            size: 45
          }
        }
      }
    }
  }
}
node {
  name: "dnn/hiddenlayer_1/weights/part_0/Initializer/random_uniform"
  op: "Add"
  input: "dnn/hiddenlayer_1/weights/part_0/Initializer/random_uniform/mul"
  input: "dnn/hiddenlayer_1/weights/part_0/Initializer/random_uniform/min"
  attr {
    key: "T"
    value {
      type: DT_FLOAT
    }
  }
  attr {
    key: "_class"
    value {
      list {
        s: "loc:@dnn/hiddenlayer_1/weights/part_0"
      }
    }
  }
  attr {
    key: "_output_shapes"
    value {
      list {
        shape {
          dim {
            size: 30
          }
          dim {
            size: 45
          }
        }
      }
    }
  }
}
node {
  name: "dnn/hiddenlayer_1/weights/part_0"
  op: "VariableV2"
  attr {
    key: "_class"
    value {
      list {
        s: "loc:@dnn/hiddenlayer_1/weights/part_0"
      }
    }
  }
  attr {
    key: "_output_shapes"
    value {
      list {
        shape {
          dim {
            size: 30
          }
          dim {
            size: 45
          }
        }
      }
    }
  }
  attr {
    key: "container"
    value {
      s: ""
    }
  }
  attr {
    key: "dtype"
    value {
      type: DT_FLOAT
    }
  }
  attr {
    key: "shape"
    value {
      shape {
        dim {
          size: 30
        }
        dim {
          size: 45
        }
      }
    }
  }
  attr {
    key: "shared_name"
    value {
      s: ""
    }
  }
}
node {
  name: "dnn/hiddenlayer_1/weights/part_0/Assign"
  op: "Assign"
  input: "dnn/hiddenlayer_1/weights/part_0"
  input: "dnn/hiddenlayer_1/weights/part_0/Initializer/random_uniform"
  attr {
    key: "T"
    value {
      type: DT_FLOAT
    }
  }
  attr {
    key: "_class"
    value {
      list {
        s: "loc:@dnn/hiddenlayer_1/weights/part_0"
      }
    }
  }
  attr {
    key: "_output_shapes"
    value {
      list {
        shape {
          dim {
            size: 30
          }
          dim {
            size: 45
          }
        }
      }
    }
  }
  attr {
    key: "use_locking"
    value {
      b: true
    }
  }
  attr {
    key: "validate_shape"
    value {
      b: true
    }
  }
}
node {
  name: "dnn/hiddenlayer_1/weights/part_0/read"
  op: "Identity"
  input: "dnn/hiddenlayer_1/weights/part_0"
  attr {
    key: "T"
    value {
      type: DT_FLOAT
    }
  }
  attr {
    key: "_class"
    value {
      list {
        s: "loc:@dnn/hiddenlayer_1/weights/part_0"
      }
    }
  }
  attr {
    key: "_output_shapes"
    value {
      list {
        shape {
          dim {
            size: 30
          }
          dim {
            size: 45
          }
        }
      }
    }
  }
}
node {
  name: "dnn/hiddenlayer_1/biases/part_0/Initializer/Const"
  op: "Const"
  attr {
    key: "_class"
    value {
      list {
        s: "loc:@dnn/hiddenlayer_1/biases/part_0"
      }
    }
  }
  attr {
    key: "_output_shapes"
    value {
      list {
        shape {
          dim {
            size: 45
          }
        }
      }
    }
  }
  attr {
    key: "dtype"
    value {
      type: DT_FLOAT
    }
  }
  attr {
    key: "value"
    value {
      tensor {
        dtype: DT_FLOAT
        tensor_shape {
          dim {
            size: 45
          }
        }
        float_val: 0.0
      }
    }
  }
}
node {
  name: "dnn/hiddenlayer_1/biases/part_0"
  op: "VariableV2"
  attr {
    key: "_class"
    value {
      list {
        s: "loc:@dnn/hiddenlayer_1/biases/part_0"
      }
    }
  }
  attr {
    key: "_output_shapes"
    value {
      list {
        shape {
          dim {
            size: 45
          }
        }
      }
    }
  }
  attr {
    key: "container"
    value {
      s: ""
    }
  }
  attr {
    key: "dtype"
    value {
      type: DT_FLOAT
    }
  }
  attr {
    key: "shape"
    value {
      shape {
        dim {
          size: 45
        }
      }
    }
  }
  attr {
    key: "shared_name"
    value {
      s: ""
    }
  }
}
node {
  name: "dnn/hiddenlayer_1/biases/part_0/Assign"
  op: "Assign"
  input: "dnn/hiddenlayer_1/biases/part_0"
  input: "dnn/hiddenlayer_1/biases/part_0/Initializer/Const"
  attr {
    key: "T"
    value {
      type: DT_FLOAT
    }
  }
  attr {
    key: "_class"
    value {
      list {
        s: "loc:@dnn/hiddenlayer_1/biases/part_0"
      }
    }
  }
  attr {
    key: "_output_shapes"
    value {
      list {
        shape {
          dim {
            size: 45
          }
        }
      }
    }
  }
  attr {
    key: "use_locking"
    value {
      b: true
    }
  }
  attr {
    key: "validate_shape"
    value {
      b: true
    }
  }
}
node {
  name: "dnn/hiddenlayer_1/biases/part_0/read"
  op: "Identity"
  input: "dnn/hiddenlayer_1/biases/part_0"
  attr {
    key: "T"
    value {
      type: DT_FLOAT
    }
  }
  attr {
    key: "_class"
    value {
      list {
        s: "loc:@dnn/hiddenlayer_1/biases/part_0"
      }
    }
  }
  attr {
    key: "_output_shapes"
    value {
      list {
        shape {
          dim {
            size: 45
          }
        }
      }
    }
  }
}
node {
  name: "dnn/hiddenlayer_1/weights"
  op: "Identity"
  input: "dnn/hiddenlayer_1/weights/part_0/read"
  attr {
    key: "T"
    value {
      type: DT_FLOAT
    }
  }
  attr {
    key: "_output_shapes"
    value {
      list {
        shape {
          dim {
            size: 30
          }
          dim {
            size: 45
          }
        }
      }
    }
  }
}
node {
  name: "dnn/hiddenlayer_1/MatMul"
  op: "MatMul"
  input: "dnn/hiddenlayer_0/hiddenlayer_0/Relu"
  input: "dnn/hiddenlayer_1/weights"
  attr {
    key: "T"
    value {
      type: DT_FLOAT
    }
  }
  attr {
    key: "_output_shapes"
    value {
      list {
        shape {
          dim {
            size: 250
          }
          dim {
            size: 45
          }
        }
      }
    }
  }
  attr {
    key: "transpose_a"
    value {
      b: false
    }
  }
  attr {
    key: "transpose_b"
    value {
      b: false
    }
  }
}
node {
  name: "dnn/hiddenlayer_1/biases"
  op: "Identity"
  input: "dnn/hiddenlayer_1/biases/part_0/read"
  attr {
    key: "T"
    value {
      type: DT_FLOAT
    }
  }
  attr {
    key: "_output_shapes"
    value {
      list {
        shape {
          dim {
            size: 45
          }
        }
      }
    }
  }
}
node {
  name: "dnn/hiddenlayer_1/BiasAdd"
  op: "BiasAdd"
  input: "dnn/hiddenlayer_1/MatMul"
  input: "dnn/hiddenlayer_1/biases"
  attr {
    key: "T"
    value {
      type: DT_FLOAT
    }
  }
  attr {
    key: "_output_shapes"
    value {
      list {
        shape {
          dim {
            size: 250
          }
          dim {
            size: 45
          }
        }
      }
    }
  }
  attr {
    key: "data_format"
    value {
      s: "NHWC"
    }
  }
}
node {
  name: "dnn/hiddenlayer_1/hiddenlayer_1/Relu"
  op: "Relu"
  input: "dnn/hiddenlayer_1/BiasAdd"
  attr {
    key: "T"
    value {
      type: DT_FLOAT
    }
  }
  attr {
    key: "_output_shapes"
    value {
      list {
        shape {
          dim {
            size: 250
          }
          dim {
            size: 45
          }
        }
      }
    }
  }
}
node {
  name: "zero_fraction_1/zero"
  op: "Const"
  attr {
    key: "_output_shapes"
    value {
      list {
        shape {
        }
      }
    }
  }
  attr {
    key: "dtype"
    value {
      type: DT_FLOAT
    }
  }
  attr {
    key: "value"
    value {
      tensor {
        dtype: DT_FLOAT
        tensor_shape {
        }
        float_val: 0.0
      }
    }
  }
}
node {
  name: "zero_fraction_1/Equal"
  op: "Equal"
  input: "dnn/hiddenlayer_1/hiddenlayer_1/Relu"
  input: "zero_fraction_1/zero"
  attr {
    key: "T"
    value {
      type: DT_FLOAT
    }
  }
  attr {
    key: "_output_shapes"
    value {
      list {
        shape {
          dim {
            size: 250
          }
          dim {
            size: 45
          }
        }
      }
    }
  }
}
node {
  name: "zero_fraction_1/Cast"
  op: "Cast"
  input: "zero_fraction_1/Equal"
  attr {
    key: "DstT"
    value {
      type: DT_FLOAT
    }
  }
  attr {
    key: "SrcT"
    value {
      type: DT_BOOL
    }
  }
  attr {
    key: "_output_shapes"
    value {
      list {
        shape {
          dim {
            size: 250
          }
          dim {
            size: 45
          }
        }
      }
    }
  }
}
node {
  name: "zero_fraction_1/Const"
  op: "Const"
  attr {
    key: "_output_shapes"
    value {
      list {
        shape {
          dim {
            size: 2
          }
        }
      }
    }
  }
  attr {
    key: "dtype"
    value {
      type: DT_INT32
    }
  }
  attr {
    key: "value"
    value {
      tensor {
        dtype: DT_INT32
        tensor_shape {
          dim {
            size: 2
          }
        }
        tensor_content: "\000\000\000\000\001\000\000\000"
      }
    }
  }
}
node {
  name: "zero_fraction_1/Mean"
  op: "Mean"
  input: "zero_fraction_1/Cast"
  input: "zero_fraction_1/Const"
  attr {
    key: "T"
    value {
      type: DT_FLOAT
    }
  }
  attr {
    key: "Tidx"
    value {
      type: DT_INT32
    }
  }
  attr {
    key: "_output_shapes"
    value {
      list {
        shape {
        }
      }
    }
  }
  attr {
    key: "keep_dims"
    value {
      b: false
    }
  }
}
node {
  name: "dnn/hiddenlayer_1_fraction_of_zero_values/tags"
  op: "Const"
  attr {
    key: "_output_shapes"
    value {
      list {
        shape {
        }
      }
    }
  }
  attr {
    key: "dtype"
    value {
      type: DT_STRING
    }
  }
  attr {
    key: "value"
    value {
      tensor {
        dtype: DT_STRING
        tensor_shape {
        }
        string_val: "dnn/hiddenlayer_1_fraction_of_zero_values"
      }
    }
  }
}
node {
  name: "dnn/hiddenlayer_1_fraction_of_zero_values"
  op: "ScalarSummary"
  input: "dnn/hiddenlayer_1_fraction_of_zero_values/tags"
  input: "zero_fraction_1/Mean"
  attr {
    key: "T"
    value {
      type: DT_FLOAT
    }
  }
  attr {
    key: "_output_shapes"
    value {
      list {
        shape {
        }
      }
    }
  }
}
node {
  name: "dnn/hiddenlayer_1_activation/tag"
  op: "Const"
  attr {
    key: "_output_shapes"
    value {
      list {
        shape {
        }
      }
    }
  }
  attr {
    key: "dtype"
    value {
      type: DT_STRING
    }
  }
  attr {
    key: "value"
    value {
      tensor {
        dtype: DT_STRING
        tensor_shape {
        }
        string_val: "dnn/hiddenlayer_1_activation"
      }
    }
  }
}
node {
  name: "dnn/hiddenlayer_1_activation"
  op: "HistogramSummary"
  input: "dnn/hiddenlayer_1_activation/tag"
  input: "dnn/hiddenlayer_1/hiddenlayer_1/Relu"
  attr {
    key: "T"
    value {
      type: DT_FLOAT
    }
  }
  attr {
    key: "_output_shapes"
    value {
      list {
        shape {
        }
      }
    }
  }
}
node {
  name: "dnn/hiddenlayer_2/weights/part_0/Initializer/random_uniform/shape"
  op: "Const"
  attr {
    key: "_class"
    value {
      list {
        s: "loc:@dnn/hiddenlayer_2/weights/part_0"
      }
    }
  }
  attr {
    key: "_output_shapes"
    value {
      list {
        shape {
          dim {
            size: 2
          }
        }
      }
    }
  }
  attr {
    key: "dtype"
    value {
      type: DT_INT32
    }
  }
  attr {
    key: "value"
    value {
      tensor {
        dtype: DT_INT32
        tensor_shape {
          dim {
            size: 2
          }
        }
        tensor_content: "-\000\000\000\036\000\000\000"
      }
    }
  }
}
node {
  name: "dnn/hiddenlayer_2/weights/part_0/Initializer/random_uniform/min"
  op: "Const"
  attr {
    key: "_class"
    value {
      list {
        s: "loc:@dnn/hiddenlayer_2/weights/part_0"
      }
    }
  }
  attr {
    key: "_output_shapes"
    value {
      list {
        shape {
        }
      }
    }
  }
  attr {
    key: "dtype"
    value {
      type: DT_FLOAT
    }
  }
  attr {
    key: "value"
    value {
      tensor {
        dtype: DT_FLOAT
        tensor_shape {
        }
        float_val: -0.2828427255153656
      }
    }
  }
}
node {
  name: "dnn/hiddenlayer_2/weights/part_0/Initializer/random_uniform/max"
  op: "Const"
  attr {
    key: "_class"
    value {
      list {
        s: "loc:@dnn/hiddenlayer_2/weights/part_0"
      }
    }
  }
  attr {
    key: "_output_shapes"
    value {
      list {
        shape {
        }
      }
    }
  }
  attr {
    key: "dtype"
    value {
      type: DT_FLOAT
    }
  }
  attr {
    key: "value"
    value {
      tensor {
        dtype: DT_FLOAT
        tensor_shape {
        }
        float_val: 0.2828427255153656
      }
    }
  }
}
node {
  name: "dnn/hiddenlayer_2/weights/part_0/Initializer/random_uniform/RandomUniform"
  op: "RandomUniform"
  input: "dnn/hiddenlayer_2/weights/part_0/Initializer/random_uniform/shape"
  attr {
    key: "T"
    value {
      type: DT_INT32
    }
  }
  attr {
    key: "_class"
    value {
      list {
        s: "loc:@dnn/hiddenlayer_2/weights/part_0"
      }
    }
  }
  attr {
    key: "_output_shapes"
    value {
      list {
        shape {
          dim {
            size: 45
          }
          dim {
            size: 30
          }
        }
      }
    }
  }
  attr {
    key: "dtype"
    value {
      type: DT_FLOAT
    }
  }
  attr {
    key: "seed"
    value {
      i: 0
    }
  }
  attr {
    key: "seed2"
    value {
      i: 0
    }
  }
}
node {
  name: "dnn/hiddenlayer_2/weights/part_0/Initializer/random_uniform/sub"
  op: "Sub"
  input: "dnn/hiddenlayer_2/weights/part_0/Initializer/random_uniform/max"
  input: "dnn/hiddenlayer_2/weights/part_0/Initializer/random_uniform/min"
  attr {
    key: "T"
    value {
      type: DT_FLOAT
    }
  }
  attr {
    key: "_class"
    value {
      list {
        s: "loc:@dnn/hiddenlayer_2/weights/part_0"
      }
    }
  }
  attr {
    key: "_output_shapes"
    value {
      list {
        shape {
        }
      }
    }
  }
}
node {
  name: "dnn/hiddenlayer_2/weights/part_0/Initializer/random_uniform/mul"
  op: "Mul"
  input: "dnn/hiddenlayer_2/weights/part_0/Initializer/random_uniform/RandomUniform"
  input: "dnn/hiddenlayer_2/weights/part_0/Initializer/random_uniform/sub"
  attr {
    key: "T"
    value {
      type: DT_FLOAT
    }
  }
  attr {
    key: "_class"
    value {
      list {
        s: "loc:@dnn/hiddenlayer_2/weights/part_0"
      }
    }
  }
  attr {
    key: "_output_shapes"
    value {
      list {
        shape {
          dim {
            size: 45
          }
          dim {
            size: 30
          }
        }
      }
    }
  }
}
node {
  name: "dnn/hiddenlayer_2/weights/part_0/Initializer/random_uniform"
  op: "Add"
  input: "dnn/hiddenlayer_2/weights/part_0/Initializer/random_uniform/mul"
  input: "dnn/hiddenlayer_2/weights/part_0/Initializer/random_uniform/min"
  attr {
    key: "T"
    value {
      type: DT_FLOAT
    }
  }
  attr {
    key: "_class"
    value {
      list {
        s: "loc:@dnn/hiddenlayer_2/weights/part_0"
      }
    }
  }
  attr {
    key: "_output_shapes"
    value {
      list {
        shape {
          dim {
            size: 45
          }
          dim {
            size: 30
          }
        }
      }
    }
  }
}
node {
  name: "dnn/hiddenlayer_2/weights/part_0"
  op: "VariableV2"
  attr {
    key: "_class"
    value {
      list {
        s: "loc:@dnn/hiddenlayer_2/weights/part_0"
      }
    }
  }
  attr {
    key: "_output_shapes"
    value {
      list {
        shape {
          dim {
            size: 45
          }
          dim {
            size: 30
          }
        }
      }
    }
  }
  attr {
    key: "container"
    value {
      s: ""
    }
  }
  attr {
    key: "dtype"
    value {
      type: DT_FLOAT
    }
  }
  attr {
    key: "shape"
    value {
      shape {
        dim {
          size: 45
        }
        dim {
          size: 30
        }
      }
    }
  }
  attr {
    key: "shared_name"
    value {
      s: ""
    }
  }
}
node {
  name: "dnn/hiddenlayer_2/weights/part_0/Assign"
  op: "Assign"
  input: "dnn/hiddenlayer_2/weights/part_0"
  input: "dnn/hiddenlayer_2/weights/part_0/Initializer/random_uniform"
  attr {
    key: "T"
    value {
      type: DT_FLOAT
    }
  }
  attr {
    key: "_class"
    value {
      list {
        s: "loc:@dnn/hiddenlayer_2/weights/part_0"
      }
    }
  }
  attr {
    key: "_output_shapes"
    value {
      list {
        shape {
          dim {
            size: 45
          }
          dim {
            size: 30
          }
        }
      }
    }
  }
  attr {
    key: "use_locking"
    value {
      b: true
    }
  }
  attr {
    key: "validate_shape"
    value {
      b: true
    }
  }
}
node {
  name: "dnn/hiddenlayer_2/weights/part_0/read"
  op: "Identity"
  input: "dnn/hiddenlayer_2/weights/part_0"
  attr {
    key: "T"
    value {
      type: DT_FLOAT
    }
  }
  attr {
    key: "_class"
    value {
      list {
        s: "loc:@dnn/hiddenlayer_2/weights/part_0"
      }
    }
  }
  attr {
    key: "_output_shapes"
    value {
      list {
        shape {
          dim {
            size: 45
          }
          dim {
            size: 30
          }
        }
      }
    }
  }
}
node {
  name: "dnn/hiddenlayer_2/biases/part_0/Initializer/Const"
  op: "Const"
  attr {
    key: "_class"
    value {
      list {
        s: "loc:@dnn/hiddenlayer_2/biases/part_0"
      }
    }
  }
  attr {
    key: "_output_shapes"
    value {
      list {
        shape {
          dim {
            size: 30
          }
        }
      }
    }
  }
  attr {
    key: "dtype"
    value {
      type: DT_FLOAT
    }
  }
  attr {
    key: "value"
    value {
      tensor {
        dtype: DT_FLOAT
        tensor_shape {
          dim {
            size: 30
          }
        }
        float_val: 0.0
      }
    }
  }
}
node {
  name: "dnn/hiddenlayer_2/biases/part_0"
  op: "VariableV2"
  attr {
    key: "_class"
    value {
      list {
        s: "loc:@dnn/hiddenlayer_2/biases/part_0"
      }
    }
  }
  attr {
    key: "_output_shapes"
    value {
      list {
        shape {
          dim {
            size: 30
          }
        }
      }
    }
  }
  attr {
    key: "container"
    value {
      s: ""
    }
  }
  attr {
    key: "dtype"
    value {
      type: DT_FLOAT
    }
  }
  attr {
    key: "shape"
    value {
      shape {
        dim {
          size: 30
        }
      }
    }
  }
  attr {
    key: "shared_name"
    value {
      s: ""
    }
  }
}
node {
  name: "dnn/hiddenlayer_2/biases/part_0/Assign"
  op: "Assign"
  input: "dnn/hiddenlayer_2/biases/part_0"
  input: "dnn/hiddenlayer_2/biases/part_0/Initializer/Const"
  attr {
    key: "T"
    value {
      type: DT_FLOAT
    }
  }
  attr {
    key: "_class"
    value {
      list {
        s: "loc:@dnn/hiddenlayer_2/biases/part_0"
      }
    }
  }
  attr {
    key: "_output_shapes"
    value {
      list {
        shape {
          dim {
            size: 30
          }
        }
      }
    }
  }
  attr {
    key: "use_locking"
    value {
      b: true
    }
  }
  attr {
    key: "validate_shape"
    value {
      b: true
    }
  }
}
node {
  name: "dnn/hiddenlayer_2/biases/part_0/read"
  op: "Identity"
  input: "dnn/hiddenlayer_2/biases/part_0"
  attr {
    key: "T"
    value {
      type: DT_FLOAT
    }
  }
  attr {
    key: "_class"
    value {
      list {
        s: "loc:@dnn/hiddenlayer_2/biases/part_0"
      }
    }
  }
  attr {
    key: "_output_shapes"
    value {
      list {
        shape {
          dim {
            size: 30
          }
        }
      }
    }
  }
}
node {
  name: "dnn/hiddenlayer_2/weights"
  op: "Identity"
  input: "dnn/hiddenlayer_2/weights/part_0/read"
  attr {
    key: "T"
    value {
      type: DT_FLOAT
    }
  }
  attr {
    key: "_output_shapes"
    value {
      list {
        shape {
          dim {
            size: 45
          }
          dim {
            size: 30
          }
        }
      }
    }
  }
}
node {
  name: "dnn/hiddenlayer_2/MatMul"
  op: "MatMul"
  input: "dnn/hiddenlayer_1/hiddenlayer_1/Relu"
  input: "dnn/hiddenlayer_2/weights"
  attr {
    key: "T"
    value {
      type: DT_FLOAT
    }
  }
  attr {
    key: "_output_shapes"
    value {
      list {
        shape {
          dim {
            size: 250
          }
          dim {
            size: 30
          }
        }
      }
    }
  }
  attr {
    key: "transpose_a"
    value {
      b: false
    }
  }
  attr {
    key: "transpose_b"
    value {
      b: false
    }
  }
}
node {
  name: "dnn/hiddenlayer_2/biases"
  op: "Identity"
  input: "dnn/hiddenlayer_2/biases/part_0/read"
  attr {
    key: "T"
    value {
      type: DT_FLOAT
    }
  }
  attr {
    key: "_output_shapes"
    value {
      list {
        shape {
          dim {
            size: 30
          }
        }
      }
    }
  }
}
node {
  name: "dnn/hiddenlayer_2/BiasAdd"
  op: "BiasAdd"
  input: "dnn/hiddenlayer_2/MatMul"
  input: "dnn/hiddenlayer_2/biases"
  attr {
    key: "T"
    value {
      type: DT_FLOAT
    }
  }
  attr {
    key: "_output_shapes"
    value {
      list {
        shape {
          dim {
            size: 250
          }
          dim {
            size: 30
          }
        }
      }
    }
  }
  attr {
    key: "data_format"
    value {
      s: "NHWC"
    }
  }
}
node {
  name: "dnn/hiddenlayer_2/hiddenlayer_2/Relu"
  op: "Relu"
  input: "dnn/hiddenlayer_2/BiasAdd"
  attr {
    key: "T"
    value {
      type: DT_FLOAT
    }
  }
  attr {
    key: "_output_shapes"
    value {
      list {
        shape {
          dim {
            size: 250
          }
          dim {
            size: 30
          }
        }
      }
    }
  }
}
node {
  name: "zero_fraction_2/zero"
  op: "Const"
  attr {
    key: "_output_shapes"
    value {
      list {
        shape {
        }
      }
    }
  }
  attr {
    key: "dtype"
    value {
      type: DT_FLOAT
    }
  }
  attr {
    key: "value"
    value {
      tensor {
        dtype: DT_FLOAT
        tensor_shape {
        }
        float_val: 0.0
      }
    }
  }
}
node {
  name: "zero_fraction_2/Equal"
  op: "Equal"
  input: "dnn/hiddenlayer_2/hiddenlayer_2/Relu"
  input: "zero_fraction_2/zero"
  attr {
    key: "T"
    value {
      type: DT_FLOAT
    }
  }
  attr {
    key: "_output_shapes"
    value {
      list {
        shape {
          dim {
            size: 250
          }
          dim {
            size: 30
          }
        }
      }
    }
  }
}
node {
  name: "zero_fraction_2/Cast"
  op: "Cast"
  input: "zero_fraction_2/Equal"
  attr {
    key: "DstT"
    value {
      type: DT_FLOAT
    }
  }
  attr {
    key: "SrcT"
    value {
      type: DT_BOOL
    }
  }
  attr {
    key: "_output_shapes"
    value {
      list {
        shape {
          dim {
            size: 250
          }
          dim {
            size: 30
          }
        }
      }
    }
  }
}
node {
  name: "zero_fraction_2/Const"
  op: "Const"
  attr {
    key: "_output_shapes"
    value {
      list {
        shape {
          dim {
            size: 2
          }
        }
      }
    }
  }
  attr {
    key: "dtype"
    value {
      type: DT_INT32
    }
  }
  attr {
    key: "value"
    value {
      tensor {
        dtype: DT_INT32
        tensor_shape {
          dim {
            size: 2
          }
        }
        tensor_content: "\000\000\000\000\001\000\000\000"
      }
    }
  }
}
node {
  name: "zero_fraction_2/Mean"
  op: "Mean"
  input: "zero_fraction_2/Cast"
  input: "zero_fraction_2/Const"
  attr {
    key: "T"
    value {
      type: DT_FLOAT
    }
  }
  attr {
    key: "Tidx"
    value {
      type: DT_INT32
    }
  }
  attr {
    key: "_output_shapes"
    value {
      list {
        shape {
        }
      }
    }
  }
  attr {
    key: "keep_dims"
    value {
      b: false
    }
  }
}
node {
  name: "dnn/hiddenlayer_2_fraction_of_zero_values/tags"
  op: "Const"
  attr {
    key: "_output_shapes"
    value {
      list {
        shape {
        }
      }
    }
  }
  attr {
    key: "dtype"
    value {
      type: DT_STRING
    }
  }
  attr {
    key: "value"
    value {
      tensor {
        dtype: DT_STRING
        tensor_shape {
        }
        string_val: "dnn/hiddenlayer_2_fraction_of_zero_values"
      }
    }
  }
}
node {
  name: "dnn/hiddenlayer_2_fraction_of_zero_values"
  op: "ScalarSummary"
  input: "dnn/hiddenlayer_2_fraction_of_zero_values/tags"
  input: "zero_fraction_2/Mean"
  attr {
    key: "T"
    value {
      type: DT_FLOAT
    }
  }
  attr {
    key: "_output_shapes"
    value {
      list {
        shape {
        }
      }
    }
  }
}
node {
  name: "dnn/hiddenlayer_2_activation/tag"
  op: "Const"
  attr {
    key: "_output_shapes"
    value {
      list {
        shape {
        }
      }
    }
  }
  attr {
    key: "dtype"
    value {
      type: DT_STRING
    }
  }
  attr {
    key: "value"
    value {
      tensor {
        dtype: DT_STRING
        tensor_shape {
        }
        string_val: "dnn/hiddenlayer_2_activation"
      }
    }
  }
}
node {
  name: "dnn/hiddenlayer_2_activation"
  op: "HistogramSummary"
  input: "dnn/hiddenlayer_2_activation/tag"
  input: "dnn/hiddenlayer_2/hiddenlayer_2/Relu"
  attr {
    key: "T"
    value {
      type: DT_FLOAT
    }
  }
  attr {
    key: "_output_shapes"
    value {
      list {
        shape {
        }
      }
    }
  }
}
node {
  name: "dnn/logits/weights/part_0/Initializer/random_uniform/shape"
  op: "Const"
  attr {
    key: "_class"
    value {
      list {
        s: "loc:@dnn/logits/weights/part_0"
      }
    }
  }
  attr {
    key: "_output_shapes"
    value {
      list {
        shape {
          dim {
            size: 2
          }
        }
      }
    }
  }
  attr {
    key: "dtype"
    value {
      type: DT_INT32
    }
  }
  attr {
    key: "value"
    value {
      tensor {
        dtype: DT_INT32
        tensor_shape {
          dim {
            size: 2
          }
        }
        tensor_content: "\036\000\000\000\001\000\000\000"
      }
    }
  }
}
node {
  name: "dnn/logits/weights/part_0/Initializer/random_uniform/min"
  op: "Const"
  attr {
    key: "_class"
    value {
      list {
        s: "loc:@dnn/logits/weights/part_0"
      }
    }
  }
  attr {
    key: "_output_shapes"
    value {
      list {
        shape {
        }
      }
    }
  }
  attr {
    key: "dtype"
    value {
      type: DT_FLOAT
    }
  }
  attr {
    key: "value"
    value {
      tensor {
        dtype: DT_FLOAT
        tensor_shape {
        }
        float_val: -0.4399413466453552
      }
    }
  }
}
node {
  name: "dnn/logits/weights/part_0/Initializer/random_uniform/max"
  op: "Const"
  attr {
    key: "_class"
    value {
      list {
        s: "loc:@dnn/logits/weights/part_0"
      }
    }
  }
  attr {
    key: "_output_shapes"
    value {
      list {
        shape {
        }
      }
    }
  }
  attr {
    key: "dtype"
    value {
      type: DT_FLOAT
    }
  }
  attr {
    key: "value"
    value {
      tensor {
        dtype: DT_FLOAT
        tensor_shape {
        }
        float_val: 0.4399413466453552
      }
    }
  }
}
node {
  name: "dnn/logits/weights/part_0/Initializer/random_uniform/RandomUniform"
  op: "RandomUniform"
  input: "dnn/logits/weights/part_0/Initializer/random_uniform/shape"
  attr {
    key: "T"
    value {
      type: DT_INT32
    }
  }
  attr {
    key: "_class"
    value {
      list {
        s: "loc:@dnn/logits/weights/part_0"
      }
    }
  }
  attr {
    key: "_output_shapes"
    value {
      list {
        shape {
          dim {
            size: 30
          }
          dim {
            size: 1
          }
        }
      }
    }
  }
  attr {
    key: "dtype"
    value {
      type: DT_FLOAT
    }
  }
  attr {
    key: "seed"
    value {
      i: 0
    }
  }
  attr {
    key: "seed2"
    value {
      i: 0
    }
  }
}
node {
  name: "dnn/logits/weights/part_0/Initializer/random_uniform/sub"
  op: "Sub"
  input: "dnn/logits/weights/part_0/Initializer/random_uniform/max"
